<unk>	0
<s>	0
</s>	0
ст	-0
ен	-1
ан	-2
ер	-3
ар	-4
ал	-5
▁с	-6
▁п	-7
▁к	-8
▁б	-9
▁т	-10
ат	-11
▁ж	-12
ет	-13
ол	-14
ов	-15
▁м	-16
▁и	-17
ор	-18
▁в	-19
▁д	-20
на	-21
ны	-22
ел	-23
ия	-24
но	-25
▁о	-26
ес	-27
ды	-28
ра	-29
ін	-30
▁қ	-31
да	-32
не	-33
ит	-34
ро	-35
сы	-36
ек	-37
ді	-38
ай	-39
ик	-40
ем	-41
ық	-42
▁2	-43
ыл	-44
он	-45
ом	-46
▁1	-47
го	-48
ын	-49
ам	-50
ин	-51
▁а	-52
ре	-53
▁С	-54
▁К	-55
▁(	-56
▁на	-57
од	-58
за	-59
ей	-60
ру	-61
із	-62
▁П	-63
ки	-64
от	-65
01	-66
00	-67
▁Б	-68
де	-69
▁-	-70
ци	-71
▁у	-72
▁А	-73
ка	-74
ли	-75
әне	-76
▁және	-77
ств	-78
ие	-79
іл	-80
▁М	-81
ғы	-82
ой	-83
ты	-84
ас	-85
тер	-86
▁по	-87
ік	-88
та	-89
ля	-90
ір	-91
▁про	-92
▁э	-93
▁О	-94
▁ө	-95
ла	-96
ед	-97
ға	-98
▁В	-99
▁Т	-100
▁ш	-101
▁ст	-102
дар	-103
▁г	-104
ри	-105
ог	-106
ім	-107
ақ	-108
ған	-109
▁бол	-110
▁не	-111
ент	-112
асы	-113
ак	-114
об	-115
аб	-116
ель	-117
▁ү	-118
ыз	-119
▁201	-120
ур	-121
▁«	-122
▁ф	-123
им	-124
ив	-125
ил	-126
▁C	-127
ау	-128
▁Р	-129
из	-130
▁ч	-131
те	-132
ся	-133
▁об	-134
..	-135
▁Қ	-136
▁ра	-137
ары	-138
ич	-139
▁Д	-140
ный	-141
ның	-142
er	-143
▁S	-144
ция	-145
алық	-146
ыс	-147
▁н	-148
▁3	-149
аль	-150
то	-151
in	-152
ің	-153
ко	-154
ров	-155
стан	-156
ект	-157
▁Н	-158
ым	-159
ап	-160
ге	-161
▁за	-162
▁ин	-163
ос	-164
ar	-165
гі	-166
алы	-167
ать	-168
ения	-169
ий	-170
▁от	-171
ест	-172
ез	-173
ии	-174
ания	-175
▁кө	-176
шін	-177
аз	-178
▁/	-179
аш	-180
ных	-181
▁5	-182
▁Ж	-183
▁И	-184
ост	-185
ис	-186
on	-187
ож	-188
ист	-189
ной	-190
▁ком	-191
st	-192
▁ал	-193
ред	-194
лық	-195
мен	-196
an	-197
ыт	-198
дер	-199
ност	-200
ады	-201
аст	-202
▁для	-203
▁ор	-204
▁з	-205
ные	-206
ав	-207
ного	-208
ран	-209
▁ар	-210
▁те	-211
ичес	-212
уб	-213
▁ә	-214
аза	-215
▁A	-216
дан	-217
▁Г	-218
▁үшін	-219
ду	-220
аты	-221
ок	-222
аң	-223
▁P	-224
ев	-225
▁л	-226
сп	-227
ение	-228
ул	-229
их	-230
▁р	-231
▁мен	-232
▁4	-233
ген	-234
▁құ	-235
ная	-236
еп	-237
оз	-238
▁х	-239
="	-240
ник	-241
▁Е	-242
▁–	-243
▁ре	-244
дің	-245
ті	-246
ыр	-247
▁ұ	-248
ид	-249
оль	-250
en	-251
ең	-252
ая	-253
тар	-254
есп	-255
олог	-256
ur	-257
ма	-258
▁>	-259
уш	-260
▁жыл	-261
ить	-262
▁из	-263
уд	-264
дық	-265
▁M	-266
ции	-267
▁B	-268
▁N	-269
ск	-270
кт	-271
▁вы	-272
інде	-273
▁T	-274
лар	-275
дың	-276
▁F	-277
at	-278
рав	-279
▁при	-280
лик	-281
оп	-282
уч	-283
ую	-284
сл	-285
ында	-286
or	-287
ина	-288
ша	-289
аны	-290
▁кү	-291
ном	-292
ағ	-293
ти	-294
мет	-295
ег	-296
▁6	-297
ми	-298
...	-299
▁го	-300
201	-301
▁бар	-302
▁L	-303
еді	-304
ут	-305
ублик	-306
▁У	-307
▁со	-308
еств	-309
▁кон	-310
▁комп	-311
▁H	-312
інің	-313
al	-314
▁_	-315
өл	-316
нда	-317
иль	-318
ұл	-319
алар	-320
ски	-321
▁D	-322
▁Ф	-323
art	-324
ері	-325
▁З	-326
▁жү	-327
цион	-328
тан	-329
▁Л	-330
оч	-331
ату	-332
его	-333
оры	-334
▁пер	-335
қа	-336
▁я	-337
▁тү	-338
ют	-339
▁0	-340
▁пол	-341
сі	-342
лен	-343
▁бір	-344
▁раз	-345
ает	-346
лект	-347
▁Ш	-348
ически	-349
▁сп	-350
▁Э	-351
ика	-352
om	-353
▁7	-354
▁R	-355
еспублик	-356
▁d	-357
нал	-358
арт	-359
▁I	-360
аж	-361
ке	-362
▁8	-363
ого	-364
▁тех	-365
лю	-366
▁св	-367
иров	-368
ып	-369
овы	-370
ac	-371
▁10	-372
▁под	-373
▁пред	-374
еч	-375
есс	-376
тық	-377
ерл	-378
тік	-379
ейін	-380
ro	-381
▁і	-382
дік	-383
есі	-384
ни	-385
итель	-386
▁қыз	-387
le	-388
▁E	-389
▁бас	-390
лы	-391
ic	-392
▁G	-393
it	-394
еб	-395
▁өн	-396
ология	-397
ное	-398
ус	-399
▁өз	-400
ят	-401
дай	-402
ание	-403
▁Республик	-404
лан	-405
уль	-406
ир	-407
▁W	-408
▁сер	-409
вод	-410
икалық	-411
мы	-412
рем	-413
es	-414
еж	-415
дал	-416
есе	-417
ности	-418
уп	-419
▁оп	-420
▁что	-421
раз	-422
▁ц	-423
▁бер	-424
ше	-425
▁<	-426
▁st	-427
▁жо	-428
20	-429
ме	-430
-1	-431
000	-432
айт	-433
бот	-434
▁ав	-435
▁start	-436
▁тур	-437
▁қар	-438
▁қол	-439
ность	-440
.0	-441
инг	-442
">	-443
қы	-444
ұр	-445
дел	-446
нов	-447
орт	-448
▁dur	-449
азах	-450
.1	-451
▁таб	-452
▁кот	-453
ерс	-454
ным	-455
el	-456
▁мү	-457
гіз	-458
пар	-459
итет	-460
іздің	-461
ші	-462
сты	-463
▁жұ	-464
▁ол	-465
са	-466
азақ	-467
▁күн	-468
дам	-469
▁Ин	-470
том	-471
▁2019	-472
et	-473
ип	-474
▁9	-475
▁сл	-476
▁Про	-477
ее	-478
ющ	-479
мер	-480
▁көр	-481
▁қызмет	-482
ol	-483
ун	-484
атель	-485
il	-486
ход	-487
▁...	-488
ңыз	-489
▁ау	-490
ется	-491
став	-492
▁кел	-493
▁нем	-494
▁Ал	-495
вер	-496
кая	-497
азахстан	-498
),	-499
іне	-500
атын	-501
▁19	-502
▁қал	-503
ылы	-504
▁кез	-505
▁техн	-506
еш	-507
▁"	-508
▁бой	-509
ад	-510
иг	-511
айн	-512
лем	-513
▁ан	-514
фор	-515
▁туралы	-516
▁20	-517
▁Co	-518
▁пай	-519
ствен	-520
су	-521
▁Х	-522
▁No	-523
▁до	-524
ch	-525
▁Ч	-526
кен	-527
кого	-528
▁ли	-529
иц	-530
се	-531
▁как	-532
азақстан	-533
ум	-534
ден	-535
▁жас	-536
▁мож	-537
▁құр	-538
же	-539
иб	-540
▁или	-541
is	-542
рі	-543
уж	-544
кін	-545
атор	-546
ынша	-547
▁немесе	-548
ган	-549
ень	-550
рен	-551
▁жет	-552
).	-553
50	-554
▁ес	-555
▁маш	-556
▁V	-557
нет	-558
▁Казахстан	-559
лектро	-560
еле	-561
уға	-562
▁эк	-563
▁O	-564
▁ай	-565
▁,	-566
рақ	-567
ры	-568
ing	-569
ами	-570
нив	-571
тары	-572
рл	-573
ства	-574
▁бойынша	-575
люч	-576
ылады	-577
ков	-578
лек	-579
ский	-580
ниверс	-581
ера	-582
ed	-583
уы	-584
каз	-585
▁қо	-586
ольз	-587
ht	-588
ию	-589
▁так	-590
▁Ө	-591
етін	-592
імді	-593
извод	-594
▁U	-595
вет	-596
гра	-597
▁он	-598
еу	-599
▁—	-600
▁Ц	-601
▁уч	-602
ите	-603
мкін	-604
ілер	-605
али	-606
тор	-607
▁ат	-608
▁де	-609
▁пр	-610
▁өт	-611
.201	-612
ласт	-613
ғары	-614
▁мүмкін	-615
ниверситет	-616
▁Қазақстан	-617
.,	-618
ion	-619
лам	-620
▁бөл	-621
ерек	-622
ител	-623
▁баст	-624
кой	-625
▁сал	-626
іп	-627
рат	-628
ылым	-629
▁12	-630
▁200	-631
as	-632
ло	-633
енттер	-634
гін	-635
▁шы	-636
▁жұм	-637
▁это	-638
▁деп	-639
▁2018	-640
ou	-641
▁болады	-642
ва	-643
ех	-644
▁которы	-645
ылар	-646
▁был	-647
іс	-648
▁рет	-649
ылған	-650
ью	-651
▁K	-652
▁ос	-653
▁Ком	-654
парат	-655
ерт	-656
▁Ст	-657
дыру	-658
тернет	-659
ня	-660
нер	-661
ілік	-662
ig	-663
ot	-664
▁мин	-665
▁сіз	-666
шы	-667
сет	-668
или	-669
▁исп	-670
▁пре	-671
▁болып	-672
ый	-673
ики	-674
ион	-675
сын	-676
әсі	-677
▁пайдал	-678
ww	-679
▁•	-680
вля	-681
▁ка	-682
▁но	-683
▁қат	-684
▁работ	-685
re	-686
▁+	-687
роп	-688
там	-689
истем	-690
ования	-691
-2	-692
com	-693
▁ем	-694
ad	-695
аг	-696
ство	-697
мин	-698
обы	-699
ульт	-700
▁жақ	-701
ах	-702
екс	-703
нес	-704
▁может	-705
▁орган	-706
кі	-707
кіз	-708
дары	-709
алған	-710
▁дейін	-711
зы	-712
▁дол	-713
налған	-714
ери	-715
▁15	-716
▁оқ	-717
ация	-718
▁стан	-719
пр	-720
▁J	-721
мат	-722
▁ет	-723
▁бұл	-724
остав	-725
ay	-726
id	-727
діру	-728
30	-729
ое	-730
▁ак	-731
▁мы	-732
▁бағ	-733
▁арналған	-734
дау	-735
лат	-736
▁ақ	-737
прав	-738
▁қор	-739
▁пайдалан	-740
ку	-741
ль	-742
вест	-743
ици	-744
▁Об	-745
елер	-746
▁жұмыс	-747
▁электро	-748
3.	-749
oo	-750
▁&	-751
ағы	-752
сих	-753
▁На	-754
обиль	-755
us	-756
сіз	-757
▁сә	-758
ществ	-759
асында	-760
▁көрсет	-761
am	-762
коном	-763
мм	-764
ала	-765
▁30	-766
▁мә	-767
▁тә	-768
▁арқ	-769
ления	-770
елеф	-771
▁мет	-772
иялық	-773
▁2017	-774
▁университет	-775
▁(1	-776
іңіз	-777
▁қаб	-778
▁явля	-779
▁жоғары	-780
▁t	-781
мір	-782
пер	-783
▁біл	-784
альный	-785
▁кейін	-786
un	-787
ош	-788
and	-789
ent	-790
лав	-791
▁ой	-792
▁мат	-793
▁Республики	-794
гер	-795
▁ро	-796
▁кли	-797
асының	-798
▁компания	-799
2.	-800
сым	-801
▁18	-802
▁су	-803
▁Бұл	-804
жен	-805
тың	-806
стар	-807
▁Мен	-808
▁автом	-809
▁систем	-810
бор	-811
ода	-812
▁ен	-813
ован	-814
імдер	-815
▁года	-816
="1	-817
дет	-818
ино	-819
она	-820
руг	-821
▁тө	-822
ател	-823
ключ	-824
▁жүй	-825
▁сақ	-826
▁ек	-827
▁см	-828
▁воз	-829
ейств	-830
▁арқылы	-831
оя	-832
▁лю	-833
▁ру	-834
лайн	-835
ской	-836
стро	-837
▁бел	-838
▁жел	-839
ерлер	-840
пы	-841
уге	-842
▁11	-843
дағы	-844
▁Кит	-845
ского	-846
честв	-847
▁посл	-848
▁қолдан	-849
▁использ	-850
);	-851
лік	-852
ней	-853
тов	-854
лары	-855
стік	-856
▁производ	-857
унк	-858
▁үй	-859
ными	-860
стық	-861
▁тер	-862
изнес	-863
▁боль	-864
▁дост	-865
▁14	-866
▁бай	-867
▁пом	-868
em	-869
яз	-870
▁*	-871
▁s	-872
есь	-873
ующ	-874
ится	-875
▁тем	-876
емлек	-877
емлекет	-878
▁технология	-879
99	-880
цен	-881
ентов	-882
ием	-883
ную	-884
▁In	-885
▁од	-886
асыз	-887
▁Сіз	-888
▁выс	-889
▁жар	-890
▁мед	-891
▁пров	-892
▁проф	-893
бр	-894
▁Ұ	-895
ана	-896
аңа	-897
қан	-898
▁16	-899
▁его	-900
▁тол	-901
ление	-902
▁адам	-903
▁табылады	-904
ow	-905
»,	-906
ter	-907
дем	-908
исс	-909
ғар	-910
ремя	-911
▁сво	-912
▁тал	-913
чес	-914
ыть	-915
▁1.	-916
тобы	-917
▁уақ	-918
форма	-919
▁проц	-920
тандыру	-921
ара	-922
асс	-923
▁тұ	-924
тері	-925
ытай	-926
▁Кон	-927
▁олар	-928
сс	-929
ту	-930
▁ғ	-931
ена	-932
ілген	-933
едж	-934
иру	-935
▁студ	-936
ve	-937
▁ск	-938
▁100	-939
▁кор	-940
▁машина	-941
▁эконом	-942
ra	-943
▁Я	-944
тау	-945
▁ди	-946
▁наш	-947
▁рез	-948
▁сам	-949
▁фор	-950
▁Ә	-951
ата	-952
иза	-953
▁то	-954
▁пар	-955
▁жылы	-956
▁прав	-957
дарлам	-958
елефон	-959
▁Қытай	-960
▁$	-961
ack	-962
раф	-963
▁50	-964
рады	-965
▁жал	-966
▁іст	-967
ектор	-968
▁емес	-969
▁инст	-970
▁чтобы	-971
аға	-972
лер	-973
ғын	-974
▁Вы	-975
ылық	-976
▁біз	-977
▁X	-978
теу	-979
урс	-980
ілі	-981
ag	-982
ых	-983
кел	-984
ушы	-985
▁От	-986
ight	-987
айды	-988
ента	-989
итор	-990
ается	-991
сының	-992
ди	-993
▁Ү	-994
200	-995
қар	-996
▁ең	-997
▁үл	-998
▁ваш	-999
,5	-1000
10	-1001
ec	-1002
му	-1003
ины	-1004
нан	-1005
▁24	-1006
▁вс	-1007
▁ти	-1008
▁все	-1009
▁соб	-1010
▁сов	-1011
▁негіз	-1012
ut	-1013
бы	-1014
▁бі	-1015
ании	-1016
нерг	-1017
▁гор	-1018
▁тар	-1019
▁получ	-1020
▁действ	-1021
▁электрон	-1022
▁бағдарлам	-1023
ца	-1024
йым	-1025
лет	-1026
оны	-1027
▁да	-1028
▁дә	-1029
▁ко	-1030
▁әр	-1031
▁бал	-1032
олько	-1033
▁быть	-1034
▁также	-1035
he	-1036
анс	-1037
кол	-1038
▁17	-1039
овые	-1040
ушылар	-1041
ических	-1042
▁професс	-1043
80	-1044
if	-1045
ir	-1046
иф	-1047
▁.	-1048
анд	-1049
ком	-1050
маты	-1051
▁Біз	-1052
▁кең	-1053
▁кол	-1054
▁қам	-1055
▁сред	-1056
ального	-1057
дарствен	-1058
▁ретінде	-1059
21	-1060
im	-1061
ба	-1062
▁Y	-1063
иту	-1064
тал	-1065
▁дв	-1066
ений	-1067
ника	-1068
▁Сер	-1069
▁без	-1070
▁име	-1071
ле	-1072
ежду	-1073
▁пот	-1074
▁Китай	-1075
5.	-1076
60	-1077
уг	-1078
деу	-1079
еци	-1080
кие	-1081
ста	-1082
дегі	-1083
▁Пре	-1084
▁буд	-1085
▁сай	-1086
▁сон	-1087
аться	-1088
▁жақсы	-1089
▁образ	-1090
▁является	-1091
емлекеттік	-1092
27	-1093
▁\	-1094
пор	-1095
▁Ав	-1096
▁ап	-1097
▁бу	-1098
-201	-1099
ейді	-1100
▁көп	-1101
▁кәсі	-1102
ические	-1103
ощ	-1104
ang	-1105
фер	-1106
▁2.	-1107
▁кл	-1108
▁пор	-1109
▁прин	-1110
▁басқа	-1111
өз	-1112
еся	-1113
тиф	-1114
▁рес	-1115
ation	-1116
ерлік	-1117
▁мест	-1118
▁енгіз	-1119
▁основ	-1120
▁өндіру	-1121
up	-1122
нар	-1123
олн	-1124
рлі	-1125
▁Ол	-1126
аның	-1127
ынды	-1128
ются	-1129
▁осы	-1130
редит	-1131
▁госу	-1132
▁друг	-1133
▁оның	-1134
ический	-1135
▁Интернет	-1136
4.	-1137
ap	-1138
йт	-1139
зид	-1140
рас	-1141
аңыз	-1142
▁При	-1143
▁усл	-1144
▁тату	-1145
станов	-1146
▁проду	-1147
▁качеств	-1148
os	-1149
ант	-1150
рес	-1151
цев	-1152
ций	-1153
ыту	-1154
ении	-1155
овор	-1156
▁алу	-1157
▁жағ	-1158
▁объ	-1159
▁там	-1160
▁эксп	-1161
▁ғылым	-1162
▁стандар	-1163
нач	-1164
реб	-1165
руп	-1166
тін	-1167
ажет	-1168
імен	-1169
▁жоб	-1170
▁жол	-1171
▁кар	-1172
▁люб	-1173
▁сап	-1174
▁соң	-1175
▁фот	-1176
▁қау	-1177
▁перв	-1178
▁функ	-1179
ование	-1180
▁болды	-1181
▁матери	-1182
23	-1183
ЕН	-1184
бер	-1185
ета	-1186
лау	-1187
рах	-1188
тыр	-1189
сына	-1190
▁диз	-1191
азино	-1192
алары	-1193
▁ұйым	-1194
▁керек	-1195
▁барлық	-1196
tp	-1197
ые	-1198
енс	-1199
зия	-1200
сті	-1201
▁им	-1202
▁дом	-1203
▁тең	-1204
абдық	-1205
▁ішін	-1206
▁бизнес	-1207
ещ	-1208
аша	-1209
рок	-1210
▁По	-1211
алды	-1212
▁дел	-1213
▁себ	-1214
kz	-1215
бір	-1216
ығы	-1217
▁25	-1218
▁St	-1219
▁мл	-1220
▁мм	-1221
аман	-1222
овых	-1223
стер	-1224
еттер	-1225
▁проб	-1226
▁част	-1227
аралық	-1228
▁қажет	-1229
ической	-1230
▁онлайн	-1231
71	-1232
ik	-1233
um	-1234
абр	-1235
кон	-1236
лич	-1237
лож	-1238
http	-1239
▁2016	-1240
▁более	-1241
▁которые	-1242
//	-1243
ip	-1244
».	-1245
пу	-1246
▁°	-1247
://	-1248
иде	-1249
най	-1250
пис	-1251
▁Ор	-1252
алау	-1253
ская	-1254
інен	-1255
▁мод	-1256
▁қан	-1257
▁қос	-1258
ители	-1259
іледі	-1260
▁псих	-1261
▁стран	-1262
▁Алматы	-1263
рия	-1264
▁эф	-1265
ицин	-1266
овой	-1267
ысқа	-1268
▁кер	-1269
▁тру	-1270
циялық	-1271
▁интер	-1272
▁энерг	-1273
25	-1274
www	-1275
ила	-1276
атив	-1277
▁дам	-1278
работ	-1279
▁будет	-1280
▁время	-1281
▁уақыт	-1282
▁бастап	-1283
▁ақпарат	-1284
▁информа	-1285
24	-1286
33	-1287
▁ел	-1288
амет	-1289
ттық	-1290
▁акт	-1291
▁дан	-1292
▁ест	-1293
▁мек	-1294
▁фак	-1295
вести	-1296
▁жаңа	-1297
альной	-1298
▁котор	-1299
▁област	-1300
▁телефон	-1301
алықаралық	-1302
of	-1303
ОР	-1304
нь	-1305
үй	-1306
▁#	-1307
бек	-1308
вар	-1309
пен	-1310
қыш	-1311
▁26	-1312
един	-1313
след	-1314
▁бұр	-1315
▁рег	-1316
▁2014	-1317
ическая	-1318
▁програ	-1319
▁состав	-1320
28	-1321
дж	-1322
▁c	-1323
▁m	-1324
ены	-1325
рет	-1326
▁An	-1327
мент	-1328
овый	-1329
▁Как	-1330
▁бан	-1331
▁қай	-1332
атура	-1333
ников	-1334
▁болуы	-1335
▁технолог	-1336
45	-1337
пл	-1338
кое	-1339
сыл	-1340
▁Ан	-1341
▁нә	-1342
▁оч	-1343
атты	-1344
ости	-1345
ынан	-1346
▁Пер	-1347
▁шар	-1348
стана	-1349
стыру	-1350
▁разв	-1351
▁тран	-1352
▁құра	-1353
▁после	-1354
▁специ	-1355
▁участ	-1356
td	-1357
рм	-1358
▁»	-1359
учш	-1360
ябр	-1361
▁Ch	-1362
▁бы	-1363
огда	-1364
▁соз	-1365
едующ	-1366
строй	-1367
ятель	-1368
▁государствен	-1369
iv	-1370
py	-1371
АР	-1372
ЕР	-1373
би	-1374
лі	-1375
еке	-1376
йел	-1377
кий	-1378
нен	-1379
ова	-1380
тап	-1381
ура	-1382
▁мұ	-1383
алог	-1384
ники	-1385
фици	-1386
ылды	-1387
▁док	-1388
▁жоқ	-1389
▁көм	-1390
▁мер	-1391
▁сан	-1392
▁сен	-1393
▁таң	-1394
▁түр	-1395
аттар	-1396
иссия	-1397
кадем	-1398
народ	-1399
▁біздің	-1400
op	-1401
уі	-1402
еті	-1403
мақ	-1404
ғаш	-1405
▁вн	-1406
абар	-1407
елік	-1408
енты	-1409
▁жау	-1410
сында	-1411
▁Комп	-1412
еждународ	-1413
▁мемлекеттік	-1414
ak	-1415
og	-1416
one	-1417
рос	-1418
сен	-1419
тив	-1420
▁13	-1421
▁Дж	-1422
ации	-1423
▁код	-1424
▁лет	-1425
▁мар	-1426
▁нач	-1427
ьютер	-1428
▁жағдай	-1429
▁жеткіз	-1430
▁представ	-1431
▁[	-1432
мот	-1433
рит	-1434
цию	-1435
▁во	-1436
▁их	-1437
асты	-1438
елов	-1439
ентр	-1440
ымен	-1441
▁нар	-1442
▁төл	-1443
▁есеп	-1444
▁шығар	-1445
▁постав	-1446
77	-1447
ob	-1448
ov	-1449
▁n	-1450
ают	-1451
вис	-1452
лад	-1453
лаз	-1454
льт	-1455
тің	-1456
▁ис	-1457
асын	-1458
інші	-1459
▁дет	-1460
▁сау	-1461
▁http	-1462
▁тест	-1463
▁интернет	-1464
АН	-1465
зв	-1466
тү	-1467
ерж	-1468
руз	-1469
сыз	-1470
алып	-1471
▁тен	-1472
▁өте	-1473
▁2013	-1474
▁который	-1475
йк	-1476
ың	-1477
ill	-1478
бол	-1479
кіл	-1480
неч	-1481
теп	-1482
атып	-1483
аған	-1484
дығы	-1485
▁жаз	-1486
▁ист	-1487
▁оны	-1488
тифик	-1489
▁Глав	-1490
▁беру	-1491
▁году	-1492
циялар	-1493
ындағы	-1494
▁управ	-1495
▁сондай	-1496
▁проблем	-1497
90	-1498
oc	-1499
ul	-1500
act	-1501
ающ	-1502
еге	-1503
жим	-1504
мыз	-1505
тты	-1506
▁Он	-1507
▁ер	-1508
▁та	-1509
ланы	-1510
озит	-1511
ость	-1512
▁Для	-1513
▁дай	-1514
▁жан	-1515
▁сол	-1516
▁тек	-1517
▁чем	-1518
еспеч	-1519
инист	-1520
шілер	-1521
▁белг	-1522
▁бесп	-1523
▁конт	-1524
▁ойын	-1525
▁орын	-1526
індегі	-1527
▁жылғы	-1528
▁басқар	-1529
▁татуиров	-1530
-0	-1531
11	-1532
▁p	-1533
вед	-1534
ких	-1535
кур	-1536
кім	-1537
мож	-1538
ний	-1539
сер	-1540
чет	-1541
▁23	-1542
▁3.	-1543
▁Bl	-1544
▁Ар	-1545
▁бұ	-1546
▁Өн	-1547
ализ	-1548
ляет	-1549
онус	-1550
▁Под	-1551
▁жүр	-1552
▁орт	-1553
готов	-1554
лттық	-1555
рован	-1556
▁2015	-1557
▁отыр	-1558
ланған	-1559
▁Республикасы	-1560
98	-1561
бо	-1562
уз	-1563
▁Z	-1564
ail	-1565
ние	-1566
тен	-1567
ыны	-1568
▁Ев	-1569
▁кі	-1570
▁сұ	-1571
▁эт	-1572
стоя	-1573
юмин	-1574
▁Ltd	-1575
▁каб	-1576
▁тан	-1577
▁фин	-1578
▁қаз	-1579
атист	-1580
▁2012	-1581
▁жина	-1582
▁сәйк	-1583
ирован	-1584
▁бірақ	-1585
▁төмен	-1586
▁қабыл	-1587
▁темпер	-1588
ce	-1589
ct	-1590
th	-1591
ate	-1592
еда	-1593
нем	-1594
сел	-1595
тел	-1596
▁21	-1597
▁500	-1598
▁екі	-1599
▁сот	-1600
▁сайт	-1601
▁жауап	-1602
▁метал	-1603
▁ішінде	-1604
▁материал	-1605
6.	-1606
ru	-1607
ОН	-1608
СТ	-1609
ыш	-1610
лин	-1611
хан	-1612
ына	-1613
▁АҚ	-1614
▁Мы	-1615
▁жи	-1616
держ	-1617
лығы	-1618
ских	-1619
стру	-1620
▁Сол	-1621
▁жең	-1622
▁кат	-1623
▁көз	-1624
▁тіл	-1625
▁чер	-1626
лектр	-1627
▁күні	-1628
еловек	-1629
▁болат	-1630
▁больш	-1631
▁деген	-1632
▁хабар	-1633
▁қатыс	-1634
▁алюмин	-1635
▁дизайн	-1636
▁Республикасының	-1637
7.	-1638
mm	-1639
ян	-1640
өн	-1641
ess	-1642
ong	-1643
ерм	-1644
жай	-1645
лом	-1646
ять	-1647
імі	-1648
ғал	-1649
▁ад	-1650
▁же	-1651
▁ту	-1652
дері	-1653
▁Кол	-1654
▁Пос	-1655
▁Это	-1656
▁вам	-1657
▁гид	-1658
▁хор	-1659
айтын	-1660
▁дней	-1661
▁того	-1662
▁өмір	-1663
тамасыз	-1664
▁сіздің	-1665
▁обеспеч	-1666
▁компьютер	-1667
▁қамтамасыз	-1668
):	-1669
АЛ	-1670
АТ	-1671
ОЛ	-1672
яд	-1673
іт	-1674
ine	-1675
ому	-1676
▁4.	-1677
▁бл	-1678
▁зд	-1679
▁кв	-1680
ілді	-1681
▁Бір	-1682
▁заң	-1683
▁мас	-1684
▁мог	-1685
▁тел	-1686
ограф	-1687
ответ	-1688
ремен	-1689
▁Егер	-1690
▁алды	-1691
▁если	-1692
ичеств	-1693
▁коман	-1694
▁толық	-1695
▁қалай	-1696
▁кезінде	-1697
▁области	-1698
▁Производ	-1699
od	-1700
ву	-1701
▁b	-1702
ard	-1703
дыр	-1704
лап	-1705
про	-1706
цеп	-1707
қты	-1708
▁Сл	-1709
▁асы	-1710
▁жиз	-1711
▁рас	-1712
▁тір	-1713
иться	-1714
циясы	-1715
шения	-1716
зидент	-1717
▁қауіп	-1718
▁өткіз	-1719
▁жабдық	-1720
▁продук	-1721
асындағы	-1722
38	-1723
40	-1724
eb	-1725
ie	-1726
ub	-1727
▁£	-1728
▁І	-1729
ech	-1730
ell	-1731
ерк	-1732
раж	-1733
▁ци	-1734
ракт	-1735
▁бақ	-1736
▁мил	-1737
▁тап	-1738
овать	-1739
▁Псих	-1740
▁басы	-1741
▁долж	-1742
▁есть	-1743
▁раст	-1744
▁филь	-1745
▁әйел	-1746
альные	-1747
▁талап	-1748
▁медицин	-1749
▁организа	-1750
MS	-1751
ab	-1752
га	-1753
қс	-1754
гей	-1755
руд	-1756
ует	-1757
▁Со	-1758
▁би	-1759
▁бю	-1760
▁иг	-1761
ному	-1762
стыр	-1763
ылау	-1764
▁Пол	-1765
▁жер	-1766
▁жүз	-1767
▁мон	-1768
▁общ	-1769
▁сағ	-1770
атына	-1771
ового	-1772
▁жұмы	-1773
▁зерт	-1774
▁машин	-1775
▁страх	-1776
▁человек	-1777
▁сақтандыру	-1778
ЕТ	-1779
үз	-1780
▁:	-1781
ему	-1782
ехн	-1783
кра	-1784
нің	-1785
ращ	-1786
фед	-1787
▁28	-1788
▁60	-1789
▁аг	-1790
▁аз	-1791
амен	-1792
овая	-1793
▁Мод	-1794
▁Пар	-1795
▁вне	-1796
▁дир	-1797
▁дис	-1798
▁мақ	-1799
▁нам	-1800
ектив	-1801
▁высо	-1802
▁день	-1803
альных	-1804
▁сатып	-1805
▁тенге	-1806
ического	-1807
▁Главная	-1808
▁процесс	-1809
ологиялық	-1810
▁жасалған	-1811
▁халықаралық	-1812
",	-1813
16	-1814
AS	-1815
IN	-1816
iz	-1817
ущ	-1818
чи	-1819
▁f	-1820
ind	-1821
ият	-1822
онд	-1823
уля	-1824
▁Еу	-1825
▁жі	-1826
мест	-1827
тағы	-1828
өмір	-1829
▁вед	-1830
right	-1831
▁меся	-1832
▁можно	-1833
▁пласт	-1834
▁помощ	-1835
▁спорт	-1836
▁құрал	-1837
▁Біздің	-1838
▁академ	-1839
▁болған	-1840
▁доступ	-1841
▁байланы	-1842
▁деятель	-1843
▁програм	-1844
▁өнімдер	-1845
кс	-1846
оф	-1847
ящ	-1848
.07	-1849
дір	-1850
ено	-1851
есу	-1852
мыш	-1853
сли	-1854
уст	-1855
шық	-1856
▁--	-1857
▁0,	-1858
▁40	-1859
▁ам	-1860
арма	-1861
есін	-1862
опас	-1863
ские	-1864
ікті	-1865
▁жен	-1866
▁оқу	-1867
▁тор	-1868
алығы	-1869
ғында	-1870
▁Copy	-1871
дардың	-1872
▁болса	-1873
▁керам	-1874
▁прост	-1875
никалық	-1876
▁предпр	-1877
▁развит	-1878
▁соответ	-1879
▁мүмкіндік	-1880
2)	-1881
ev	-1882
▁€	-1883
ers	-1884
est	-1885
елі	-1886
жір	-1887
ках	-1888
пол	-1889
▁Сп	-1890
▁пл	-1891
ария	-1892
ехан	-1893
здік	-1894
оруд	-1895
особ	-1896
▁зар	-1897
▁орн	-1898
жіриб	-1899
▁2020	-1900
▁анық	-1901
▁бағы	-1902
▁обуч	-1903
▁иннов	-1904
▁маман	-1905
▁милли	-1906
▁минут	-1907
ователь	-1908
▁сәйкес	-1909
▁только	-1910
▁ғылыми	-1911
▁депозит	-1912
▁инвести	-1913
44	-1914
IS	-1915
ex	-1916
pp	-1917
ыв	-1918
▁“	-1919
бап	-1920
езд	-1921
ете	-1922
▁Sh	-1923
▁Un	-1924
▁Жо	-1925
▁вз	-1926
▁ию	-1927
ению	-1928
▁нау	-1929
▁нес	-1930
▁сем	-1931
▁сет	-1932
▁хим	-1933
▁шам	-1934
▁баға	-1935
▁виде	-1936
▁жеке	-1937
▁клап	-1938
мышлен	-1939
талған	-1940
ылатын	-1941
▁бұрын	-1942
▁жасау	-1943
▁орнал	-1944
▁келген	-1945
▁көрсету	-1946
▁действие	-1947
▁Copyright	-1948
▁профессор	-1949
-8	-1950
35	-1951
67	-1952
97	-1953
AC	-1954
qu	-1955
бі	-1956
па	-1957
яв	-1958
ass	-1959
еме	-1960
еты	-1961
лас	-1962
ног	-1963
ске	-1964
қым	-1965
▁Тү	-1966
▁ая	-1967
▁өл	-1968
атья	-1969
дірі	-1970
елен	-1971
цент	-1972
ября	-1973
▁айт	-1974
▁дең	-1975
▁инф	-1976
▁кам	-1977
▁поч	-1978
▁сек	-1979
ателя	-1980
дения	-1981
ланыс	-1982
терді	-1983
ферен	-1984
▁сдел	-1985
▁больше	-1986
▁возмож	-1987
▁жылдам	-1988
▁казино	-1989
▁компон	-1990
▁бесплат	-1991
▁тәжіриб	-1992
▁компании	-1993
15	-1994
ib	-1995
иж	-1996
ья	-1997
ist	-1998
ели	-1999
лон	-2000
рай	-2001
рол	-2002
сін	-2003
уші	-2004
ьер	-2005
▁22	-2006
▁Св	-2007
▁мо	-2008
▁ҚР	-2009
▁қу	-2010
ледж	-2011
▁www	-2012
▁вод	-2013
▁кур	-2014
▁пак	-2015
▁том	-2016
елері	-2017
икасы	-2018
ителя	-2019
▁алады	-2020
▁білім	-2021
▁Астана	-2022
▁аласыз	-2023
▁исслед	-2024
▁автомат	-2025
▁поддерж	-2026
▁поставщ	-2027
▁установ	-2028
▁сертифик	-2029
▁қауіпсіз	-2030
**	-2031
0.	-2032
ИЯ	-2033
кр	-2034
мо	-2035
ұс	-2036
ife	-2037
ook	-2038
даж	-2039
леу	-2040
рал	-2041
▁Ақ	-2042
▁За	-2043
▁ув	-2044
ндай	-2045
неше	-2046
сыны	-2047
▁Бар	-2048
▁ауд	-2049
▁год	-2050
▁нор	-2051
▁шеш	-2052
▁язы	-2053
▁Қар	-2054
андық	-2055
шылар	-2056
▁Фран	-2057
▁себя	-2058
▁случ	-2059
альная	-2060
▁включ	-2061
▁жалпы	-2062
▁ресми	-2063
▁услуг	-2064
▁Мобиль	-2065
▁береді	-2066
▁менедж	-2067
▁Электро	-2068
▁статист	-2069
▁қызметк	-2070
▁клиенттер	-2071
▁соответств	-2072
▁Университет	-2073
ia	-2074
иат	-2075
изм	-2076
рой	-2077
тех	-2078
узы	-2079
ғыш	-2080
▁29	-2081
▁Мұ	-2082
▁бү	-2083
▁еш	-2084
егод	-2085
опро	-2086
орта	-2087
▁Com	-2088
▁вас	-2089
▁вер	-2090
▁вол	-2091
▁ету	-2092
▁жөн	-2093
▁мін	-2094
▁нас	-2095
▁ном	-2096
▁они	-2097
▁Герм	-2098
▁план	-2099
▁связ	-2100
▁скор	-2101
▁сост	-2102
▁жария	-2103
▁измен	-2104
▁инжен	-2105
▁когда	-2106
▁через	-2107
▁қорға	-2108
▁проект	-2109
▁қандай	-2110
▁безопас	-2111
▁международ	-2112
3,	-2113
34	-2114
70	-2115
de	-2116
АС	-2117
ух	-2118
ast	-2119
вор	-2120
дей	-2121
еля	-2122
нос	-2123
оты	-2124
рей	-2125
чик	-2126
▁0.	-2127
▁Кө	-2128
="1.	-2129
ресс	-2130
ступ	-2131
хран	-2132
▁Осы	-2133
▁Раз	-2134
▁бет	-2135
▁вид	-2136
▁дек	-2137
▁доб	-2138
▁иск	-2139
▁кеп	-2140
▁рек	-2141
▁тұр	-2142
▁өзг	-2143
енных	-2144
▁(201	-2145
▁плат	-2146
▁уров	-2147
▁нөмір	-2148
▁жүйесі	-2149
▁жүргіз	-2150
▁инстру	-2151
▁мобиль	-2152
▁размер	-2153
▁промышлен	-2154
▁Производители	-2155
31	-2156
94	-2157
АЗ	-2158
ША	-2159
акс	-2160
зір	-2161
ира	-2162
нев	-2163
нод	-2164
ота	-2165
ром	-2166
▁5.	-2167
▁Ar	-2168
▁Cl	-2169
▁Аз	-2170
ипат	-2171
ктов	-2172
▁Бан	-2173
▁акк	-2174
▁кал	-2175
▁күш	-2176
▁көш	-2177
▁сөз	-2178
▁топ	-2179
▁шаң	-2180
ексер	-2181
стары	-2182
ходит	-2183
ғашқы	-2184
▁парт	-2185
▁этом	-2186
келген	-2187
ностью	-2188
▁имеет	-2189
▁хорош	-2190
▁өткен	-2191
ациялық	-2192
▁Минист	-2193
▁можете	-2194
▁оборуд	-2195
▁финанс	-2196
▁профессион	-2197
▁электрондық	-2198
22	-2199
3"	-2200
95	-2201
EM	-2202
сь	-2203
цы	-2204
▁i	-2205
▁Ю	-2206
ies	-2207
ont	-2208
гіш	-2209
ими	-2210
лощ	-2211
уры	-2212
▁US	-2213
▁Кү	-2214
▁өс	-2215
="3.	-2216
ance	-2217
ақыр	-2218
баев	-2219
итут	-2220
иясы	-2221
пион	-2222
рист	-2223
твер	-2224
урет	-2225
▁Pro	-2226
▁Заң	-2227
▁Мет	-2228
▁веб	-2229
▁нуж	-2230
▁эфф	-2231
▁Құр	-2232
▁құқ	-2233
сымша	-2234
▁Амер	-2235
▁Если	-2236
▁буду	-2237
▁было	-2238
▁необ	-2239
▁треб	-2240
▁фабр	-2241
ілікті	-2242
▁аудар	-2243
▁тегін	-2244
армацев	-2245
▁Статья	-2246
▁конкур	-2247
▁Ұлттық	-2248
▁бірнеше	-2249
▁следующ	-2250
▁Компания	-2251
▁байланысты	-2252
▁қолданысқа	-2253
%,	-2254
PS	-2255
ns	-2256
рд	-2257
▁w	-2258
▁ю	-2259
ort	-2260
бен	-2261
иев	-2262
▁70	-2263
▁Эк	-2264
▁із	-2265
дігі	-2266
▁Бас	-2267
▁Рес	-2268
▁жос	-2269
▁защ	-2270
▁иде	-2271
▁мол	-2272
ейтін	-2273
ходим	-2274
▁Пред	-2275
▁внут	-2276
▁мерз	-2277
▁порт	-2278
▁әлем	-2279
ателей	-2280
▁бонус	-2281
▁лицен	-2282
▁режим	-2283
▁тапсы	-2284
▁Модель	-2285
▁сотруд	-2286
▁тексер	-2287
▁негізгі	-2288
▁системы	-2289
▁өндірушілер	-2290
37	-2291
ha	-2292
ry	-2293
до	-2294
яж	-2295
құ	-2296
dro	-2297
gle	-2298
ада	-2299
аем	-2300
вей	-2301
ким	-2302
лив	-2303
тір	-2304
ули	-2305
уют	-2306
ыты	-2307
▁90	-2308
▁Pl	-2309
▁Из	-2310
▁РК	-2311
▁оз	-2312
echn	-2313
tern	-2314
гісі	-2315
екта	-2316
енті	-2317
еров	-2318
служ	-2319
улер	-2320
▁and	-2321
▁гол	-2322
▁зап	-2323
▁кем	-2324
▁суб	-2325
▁тау	-2326
▁тон	-2327
▁фай	-2328
ричес	-2329
▁екен	-2330
▁лучш	-2331
▁түрл	-2332
түстік	-2333
ушілер	-2334
▁актив	-2335
▁елдер	-2336
▁кезде	-2337
▁польз	-2338
▁сағат	-2339
▁стали	-2340
▁ұсыны	-2341
▁жүзеге	-2342
▁өндірі	-2343
армацевт	-2344
▁басқару	-2345
▁миллион	-2346
▁орталығы	-2347
▁разработ	-2348
▁стандарт	-2349
▁пайдалану	-2350
▁технологиялар	-2351
46	-2352
85	-2353
ОВ	-2354
жы	-2355
.10	-2356
ach	-2357
ian	-2358
int	-2359
ory	-2360
our	-2361
ейт	-2362
них	-2363
общ	-2364
оци	-2365
рев	-2366
реж	-2367
ғыз	-2368
ұсқ	-2369
▁+7	-2370
▁1,	-2371
▁оң	-2372
ment	-2373
атар	-2374
груз	-2375
кені	-2376
форм	-2377
▁000	-2378
▁Кар	-2379
▁Так	-2380
▁бил	-2381
▁нед	-2382
▁пен	-2383
▁пов	-2384
▁тип	-2385
▁тіз	-2386
алады	-2387
истри	-2388
ратег	-2389
▁бюдж	-2390
▁науч	-2391
▁орта	-2392
▁расп	-2393
▁свой	-2394
▁тиіс	-2395
егодня	-2396
ератор	-2397
▁бағыт	-2398
▁бөлім	-2399
▁механ	-2400
▁сауда	-2401
▁услов	-2402
▁үлкен	-2403
▁ұсына	-2404
▁устрой	-2405
▁ұйымда	-2406
▁факульт	-2407
▁байланыс	-2408
▁Казахстана	-2409
36	-2410
ud	-2411
ИТ	-2412
вы	-2413
ги	-2414
иғ	-2415
oft	-2416
аже	-2417
бат	-2418
ере	-2419
ерш	-2420
ман	-2421
рау	-2422
шта	-2423
энь	-2424
▁АО	-2425
▁Ак	-2426
▁Оп	-2427
▁үш	-2428
▁өң	-2429
арий	-2430
омен	-2431
реді	-2432
ының	-2433
▁Ser	-2434
▁Бел	-2435
▁Зак	-2436
▁доп	-2437
▁жаң	-2438
▁лиц	-2439
▁май	-2440
▁мик	-2441
▁сил	-2442
▁сыр	-2443
▁чис	-2444
ализа	-2445
аусым	-2446
дыңғы	-2447
ковод	-2448
лощад	-2449
стоящ	-2450
▁басп	-2451
▁гран	-2452
▁груп	-2453
▁мақс	-2454
▁позв	-2455
аларды	-2456
▁айнал	-2457
▁очень	-2458
▁показ	-2459
▁сізге	-2460
▁қарсы	-2461
водится	-2462
ительно	-2463
▁жоспар	-2464
▁необходим	-2465
▁автомобиль	-2466
▁температура	-2467
ER	-2468
ае	-2469
бу	-2470
үл	-2471
▁~	-2472
ark	-2473
ial	-2474
ита	-2475
кіш	-2476
при	-2477
ірі	-2478
өлш	-2479
▁Sp	-2480
найы	-2481
стра	-2482
▁Бал	-2483
▁Кор	-2484
▁гар	-2485
▁зан	-2486
▁зна	-2487
▁каж	-2488
▁куп	-2489
▁маг	-2490
▁печ	-2491
▁құб	-2492
.2018	-2493
oogle	-2494
артам	-2495
ацион	-2496
дарға	-2497
енные	-2498
енный	-2499
естер	-2500
тарды	-2501
ылығы	-2502
ілері	-2503
▁курс	-2504
▁неск	-2505
▁нұсқ	-2506
▁нәти	-2507
▁облы	-2508
▁реда	-2509
▁саны	-2510
▁фото	-2511
▁Проду	-2512
▁опера	-2513
▁түрлі	-2514
▁қатар	-2515
▁үздік	-2516
▁Бизнес	-2517
▁Казино	-2518
▁клапан	-2519
▁көмект	-2520
▁электр	-2521
▁институ	-2522
▁олардың	-2523
▁результ	-2524
▁Германия	-2525
▁алюминий	-2526
-5	-2527
48	-2528
9.	-2529
TN	-2530
ne	-2531
ЕС	-2532
ув	-2533
чж	-2534
әр	-2535
eng	-2536
ish	-2537
ows	-2538
rol	-2539
бай	-2540
бон	-2541
еди	-2542
кал	-2543
ним	-2544
оды	-2545
пак	-2546
ток	-2547
ург	-2548
цуз	-2549
ғыл	-2550
▁2,	-2551
▁HD	-2552
▁Ад	-2553
▁ПР	-2554
вающ	-2555
инар	-2556
касы	-2557
ским	-2558
▁Жар	-2559
▁Сен	-2560
▁Сов	-2561
▁Тол	-2562
▁ави	-2563
▁асп	-2564
▁лаз	-2565
▁пок	-2566
▁сая	-2567
▁тез	-2568
▁әрі	-2569
ально	-2570
ындау	-2571
▁100%	-2572
▁1000	-2573
▁none	-2574
▁женщ	-2575
▁знач	-2576
▁имен	-2577
▁млрд	-2578
▁учеб	-2579
▁школ	-2580
есінің	-2581
оговор	-2582
▁жизни	-2583
▁кафед	-2584
▁кезең	-2585
▁көрін	-2586
▁түрде	-2587
▁Национ	-2588
▁келесі	-2589
▁мектеп	-2590
▁минист	-2591
▁работы	-2592
▁сапалы	-2593
▁қорғау	-2594
ирования	-2595
▁бақылау	-2596
▁монитор	-2597
▁настоящ	-2598
▁обществ	-2599
▁комиссия	-2600
▁предостав	-2601
65	-2602
76	-2603
AR	-2604
EX	-2605
IP	-2606
пи	-2607
▁k	-2608
00-	-2609
ive	-2610
деж	-2611
нее	-2612
рам	-2613
шкі	-2614
ғай	-2615
▁35	-2616
▁дү	-2617
▁уд	-2618
амыз	-2619
екті	-2620
етер	-2621
етті	-2622
ойыз	-2623
▁Кел	-2624
▁Мат	-2625
▁аст	-2626
▁вал	-2627
▁дәл	-2628
▁жүк	-2629
▁инд	-2630
▁кей	-2631
▁муж	-2632
▁рын	-2633
▁тов	-2634
▁Қаз	-2635
▁Қыз	-2636
итесь	-2637
разву	-2638
ством	-2639
утбол	-2640
ықтық	-2641
▁Fact	-2642
▁музы	-2643
▁обяз	-2644
▁расс	-2645
▁сату	-2646
▁служ	-2647
▁ульт	-2648
▁элем	-2649
дықтан	-2650
ителей	-2651
▁Басты	-2652
▁Время	-2653
▁жібер	-2654
▁маңыз	-2655
▁менің	-2656
▁соңғы	-2657
▁қазір	-2658
▁құрыл	-2659
▁өнерк	-2660
дарының	-2661
▁деңгей	-2662
▁позвол	-2663
▁способ	-2664
▁экспер	-2665
вводится	-2666
▁использу	-2667
▁республик	-2668
1-	-2669
12	-2670
39	-2671
87	-2672
OS	-2673
az	-2674
АҚ	-2675
ДЫ	-2676
-10	-2677
ама	-2678
күй	-2679
оид	-2680
оне	-2681
сон	-2682
тын	-2683
тқы	-2684
▁8.	-2685
▁Би	-2686
▁аш	-2687
▁ие	-2688
▁сч	-2689
крыт	-2690
кция	-2691
әсіп	-2692
▁You	-2693
▁США	-2694
▁сор	-2695
▁теч	-2696
droid	-2697
дарын	-2698
ектер	-2699
ением	-2700
тверж	-2701
▁Wind	-2702
▁Стан	-2703
▁ради	-2704
▁стек	-2705
▁цвет	-2706
▁шыны	-2707
▁қосы	-2708
екторы	-2709
енного	-2710
служив	-2711
▁Еуроп	-2712
▁алуға	-2713
▁класс	-2714
▁место	-2715
▁могут	-2716
▁мәсел	-2717
▁теңге	-2718
▁этого	-2719
▁Google	-2720
▁Парлам	-2721
▁Сіздің	-2722
▁уақыты	-2723
▁Windows	-2724
▁колледж	-2725
▁течение	-2726
▁аккредит	-2727
▁качестве	-2728
▁Психология	-2729
▁студенттер	-2730
▁деятельности	-2731
2,	-2732
NC	-2733
cc	-2734
ox	-2735
др	-2736
см	-2737
▁ы	-2738
are	-2739
ina	-2740
ros	-2741
гли	-2742
гов	-2743
коп	-2744
кор	-2745
лаж	-2746
лов	-2747
лян	-2748
маш	-2749
мын	-2750
окс	-2751
рон	-2752
шиб	-2753
ғам	-2754
қын	-2755
▁(5	-2756
▁En	-2757
▁OD	-2758
▁Ка	-2759
▁Од	-2760
▁ег	-2761
▁ог	-2762
▁ұш	-2763
olog	-2764
арту	-2765
елей	-2766
инам	-2767
оров	-2768
пода	-2769
▁Man	-2770
▁Бол	-2771
▁Вал	-2772
▁Исп	-2773
▁бек	-2774
▁гра	-2775
▁дер	-2776
▁жур	-2777
▁она	-2778
▁ост	-2779
▁сез	-2780
▁сия	-2781
▁сод	-2782
алдық	-2783
итать	-2784
остер	-2785
рақты	-2786
теген	-2787
▁Укра	-2788
▁Ульт	-2789
▁ерек	-2790
▁зако	-2791
▁коды	-2792
▁күнт	-2793
▁трен	-2794
▁әсер	-2795
▁https	-2796
▁Ресей	-2797
▁говор	-2798
▁город	-2799
▁көлем	-2800
▁рецеп	-2801
▁кәсіби	-2802
▁міндет	-2803
▁послед	-2804
▁потреб	-2805
▁предла	-2806
▁различ	-2807
▁тиімді	-2808
▁Factory	-2809
▁бірінші	-2810
▁стратег	-2811
▁құрылым	-2812
▁клиентов	-2813
▁жөніндегі	-2814
▁университеті	-2815
4-	-2816
9-	-2817
96	-2818
zh	-2819
ИН	-2820
ащ	-2821
гу	-2822
.12	-2823
ust	-2824
дол	-2825
ида	-2826
лор	-2827
нді	-2828
ока	-2829
▁2)	-2830
▁80	-2831
▁Sm	-2832
▁ТО	-2833
▁ас	-2834
▁ки	-2835
▁ок	-2836
орож	-2837
тама	-2838
ікір	-2839
▁АҚШ	-2840
▁Жел	-2841
▁Сан	-2842
▁бей	-2843
▁вып	-2844
▁газ	-2845
▁хот	-2846
▁қыр	-2847
▁ұза	-2848
атели	-2849
дарды	-2850
ендар	-2851
ссоци	-2852
шылық	-2853
ылары	-2854
▁Coun	-2855
▁бөлі	-2856
▁мөлш	-2857
▁орны	-2858
▁ұсын	-2859
▁әзір	-2860
▁Европ	-2861
▁высок	-2862
▁етеді	-2863
▁көтер	-2864
▁офици	-2865
▁пакет	-2866
▁перед	-2867
▁серік	-2868
▁сипат	-2869
▁стать	-2870
▁қалып	-2871
▁қорыт	-2872
▁қосыл	-2873
▁құбыр	-2874
ational	-2875
▁белсен	-2876
▁гидрав	-2877
▁дамыту	-2878
▁жылдың	-2879
▁маусым	-2880
▁машины	-2881
▁металл	-2882
ирование	-2883
олнитель	-2884
▁Android	-2885
▁являются	-2886
▁енгізіледі	-2887
▁технологии	-2888
▁жарияланған	-2889
▁экономикалық	-2890
▁промышленности	-2891
3)	-2892
io	-2893
ІЗ	-2894
Ин	-2895
ец	-2896
со	-2897
уй	-2898
ыч	-2899
ұм	-2900
▁Q	-2901
.01	-2902
00,	-2903
all	-2904
ity	-2905
ore	-2906
ure	-2907
ари	-2908
ақы	-2909
еры	-2910
жан	-2911
жат	-2912
кот	-2913
лім	-2914
рек	-2915
рин	-2916
тог	-2917
тра	-2918
уір	-2919
фиг	-2920
хож	-2921
шем	-2922
▁27	-2923
▁Br	-2924
▁Re	-2925
▁in	-2926
▁Ай	-2927
▁Бл	-2928
ақты	-2929
динг	-2930
дуст	-2931
егор	-2932
ессу	-2933
кции	-2934
мағы	-2935
нвар	-2936
порт	-2937
ыңыз	-2938
ғана	-2939
▁Тег	-2940
▁кеш	-2941
▁лег	-2942
▁пыл	-2943
▁тәр	-2944
▁хол	-2945
▁қой	-2946
андид	-2947
иплом	-2948
імдік	-2949
▁Жаңа	-2950
▁Прав	-2951
▁Прем	-2952
▁атау	-2953
▁блог	-2954
▁брен	-2955
▁были	-2956
▁всех	-2957
▁граф	-2958
▁клуб	-2959
▁сказ	-2960
▁стар	-2961
▁іске	-2962
ологии	-2963
▁Центр	-2964
▁артты	-2965
▁дерек	-2966
▁отдел	-2967
▁отлич	-2968
▁перев	-2969
▁практ	-2970
▁извест	-2971
▁направ	-2972
▁площад	-2973
▁провед	-2974
▁продаж	-2975
▁против	-2976
▁трансп	-2977
▁қолдау	-2978
▁Телефон	-2979
▁балалар	-2980
▁кәсіпор	-2981
▁маңызды	-2982
▁первого	-2983
▁сенімді	-2984
▁система	-2985
▁директор	-2986
▁календар	-2987
▁собствен	-2988
▁компаниясы	-2989
8.	-2990
AN	-2991
te	-2992
АЙ	-2993
ЕМ	-2994
▁a	-2995
.11	-2996
ide	-2997
ile	-2998
ано	-2999
виг	-3000
гия	-3001
ись	-3002
кет	-3003
кры	-3004
нам	-3005
оди	-3006
ось	-3007
улі	-3008
▁01	-3009
▁Am	-3010
▁Ph	-3011
▁Бі	-3012
▁Бү	-3013
▁Мә	-3014
▁Не	-3015
▁Ос	-3016
▁уг	-3017
▁қы	-3018
▁ұн	-3019
▁әс	-3020
rain	-3021
даны	-3022
еміз	-3023
него	-3024
рукт	-3025
ықты	-3026
іміз	-3027
▁1,5	-3028
▁Бай	-3029
▁бес	-3030
▁где	-3031
▁ген	-3032
▁мүш	-3033
▁реш	-3034
▁сар	-3035
▁уже	-3036
▁физ	-3037
▁час	-3038
ology	-3039
алист	-3040
асқан	-3041
дания	-3042
енсау	-3043
истра	-3044
күйек	-3045
мента	-3046
муник	-3047
ыңғай	-3048
▁(200	-3049
▁Олар	-3050
▁меня	-3051
▁одан	-3052
▁прош	-3053
▁стол	-3054
▁түрі	-3055
▁указ	-3056
▁член	-3057
▁эфир	-3058
▁өнім	-3059
икации	-3060
итания	-3061
тердің	-3062
фигура	-3063
▁дайын	-3064
▁много	-3065
▁ответ	-3066
▁пошта	-3067
▁таңда	-3068
▁текст	-3069
▁төлем	-3070
▁қайта	-3071
▁коммер	-3072
▁кредит	-3073
▁отырып	-3074
▁внутрен	-3075
▁жанында	-3076
▁команда	-3077
▁условия	-3078
▁істейді	-3079
echnology	-3080
лектричес	-3081
▁обслужив	-3082
▁несколько	-3083
▁предприят	-3084
▁сертификат	-3085
▁безопасности	-3086
.)	-3087
42	-3088
EC	-3089
IV	-3090
TS	-3091
Вт	-3092
ЕД	-3093
ОД	-3094
▁Ы	-3095
.04	-3096
ost	-3097
енз	-3098
ике	-3099
нақ	-3100
нит	-3101
осп	-3102
осс	-3103
осу	-3104
ото	-3105
руж	-3106
уын	-3107
чив	-3108
ыми	-3109
ісі	-3110
қыр	-3111
▁45	-3112
▁Тұ	-3113
▁ни	-3114
▁ны	-3115
▁сө	-3116
mail	-3117
айым	-3118
идер	-3119
иков	-3120
реть	-3121
тады	-3122
тоқс	-3123
тіру	-3124
шысы	-3125
ынты	-3126
ющих	-3127
істі	-3128
▁Mic	-3129
▁акс	-3130
▁аяқ	-3131
▁дав	-3132
▁жат	-3133
▁нәр	-3134
▁поз	-3135
▁син	-3136
▁сум	-3137
▁сүз	-3138
▁точ	-3139
▁қоз	-3140
▁ұст	-3141
астер	-3142
аңтар	-3143
висим	-3144
личес	-3145
матив	-3146
паков	-3147
подав	-3148
ғанда	-3149
▁Hack	-3150
▁была	-3151
▁всем	-3152
▁даже	-3153
▁жүкт	-3154
▁фран	-3155
▁ғана	-3156
йткені	-3157
рейдер	-3158
тоқсан	-3159
іңізді	-3160
▁будут	-3161
▁видео	-3162
▁жеңіл	-3163
▁опред	-3164
▁оқыту	-3165
▁Жоғары	-3166
▁доллар	-3167
▁других	-3168
▁объект	-3169
▁прилож	-3170
▁провод	-3171
▁сияқты	-3172
▁аксессу	-3173
▁опублик	-3174
▁парамет	-3175
▁руковод	-3176
▁энергия	-3177
▁конферен	-3178
▁қабылдау	-3179
▁Президент	-3180
▁управления	-3181
32	-3182
47	-3183
57	-3184
68	-3185
__	-3186
ИК	-3187
НО	-3188
НЫ	-3189
бе	-3190
рк	-3191
ңг	-3192
3">	-3193
ect	-3194
ens	-3195
ree	-3196
ань	-3197
дап	-3198
ема	-3199
ені	-3200
нош	-3201
озя	-3202
ора	-3203
раб	-3204
таж	-3205
уаш	-3206
хат	-3207
шік	-3208
яет	-3209
ялы	-3210
▁(2	-3211
▁(«	-3212
▁31	-3213
▁Но	-3214
▁вк	-3215
▁шт	-3216
▁Үй	-3217
▁Өз	-3218
,000	-3219
="5.	-3220
aceb	-3221
aked	-3222
oint	-3223
арым	-3224
ашан	-3225
ағын	-3226
екты	-3227
ское	-3228
стве	-3229
тегі	-3230
ющей	-3231
▁Жыл	-3232
▁нов	-3233
▁осу	-3234
▁таз	-3235
▁цик	-3236
.2017	-3237
ланды	-3238
майды	-3239
шілік	-3240
▁анти	-3241
▁бірі	-3242
▁крас	-3243
▁повы	-3244
▁салы	-3245
▁цена	-3246
▁қаты	-3247
▁ұзақ	-3248
альное	-3249
ерлері	-3250
иатрия	-3251
▁Faceb	-3252
▁Автом	-3253
▁астам	-3254
▁завод	-3255
▁здесь	-3256
▁истеч	-3257
▁кабин	-3258
▁пайда	-3259
▁своей	-3260
▁тақыр	-3261
▁телеф	-3262
▁түсін	-3263
▁фильм	-3264
▁экран	-3265
▁қабіл	-3266
алғашқы	-3267
ичество	-3268
▁Intern	-3269
▁бюджет	-3270
▁диамет	-3271
▁клиент	-3272
▁орнату	-3273
▁сақтау	-3274
▁случае	-3275
▁техник	-3276
▁өзгері	-3277
▁контрол	-3278
▁месяцев	-3279
▁сегодня	-3280
▁средств	-3281
▁Өнімдер	-3282
▁Facebook	-3283
▁эксперим	-3284
▁институты	-3285
41	-3286
58	-3287
NT	-3288
UR	-3289
ks	-3290
ly	-3291
uc	-3292
ІҢ	-3293
ИЕ	-3294
КТ	-3295
ея	-3296
ио	-3297
ть	-3298
юб	-3299
яч	-3300
ber	-3301
ool	-3302
ver	-3303
бас	-3304
дущ	-3305
илл	-3306
мон	-3307
оят	-3308
рез	-3309
роч	-3310
сть	-3311
ілт	-3312
ғым	-3313
▁As	-3314
▁Ау	-3315
▁ещ	-3316
▁ку	-3317
▁ми	-3318
▁пу	-3319
конч	-3320
ница	-3321
сайт	-3322
ілім	-3323
▁For	-3324
▁Жаң	-3325
▁Мед	-3326
▁апр	-3327
▁ден	-3328
▁жаб	-3329
▁зам	-3330
▁изб	-3331
▁күт	-3332
▁млн	-3333
▁нал	-3334
▁них	-3335
▁пон	-3336
▁раб	-3337
▁три	-3338
▁Қол	-3339
▁әді	-3340
akeda	-3341
аксим	-3342
екция	-3343
ержав	-3344
страл	-3345
шеств	-3346
ғарғы	-3347
▁2010	-3348
▁Инст	-3349
▁алаң	-3350
▁двиг	-3351
▁диаг	-3352
▁жасы	-3353
▁инте	-3354
▁конц	-3355
▁мног	-3356
▁рейт	-3357
▁сбор	-3358
▁терр	-3359
▁шарт	-3360
аттары	-3361
енттік	-3362
леумет	-3363
улятор	-3364
▁имеют	-3365
▁наход	-3366
▁некот	-3367
▁нәтиж	-3368
▁сайте	-3369
▁тариф	-3370
▁фотос	-3371
ировать	-3372
▁Онлайн	-3373
▁күнтіз	-3374
▁примен	-3375
▁сервер	-3376
▁футбол	-3377
▁интерес	-3378
леуметтік	-3379
▁Электрон	-3380
▁арасында	-3381
▁атындағы	-3382
▁болаттан	-3383
▁конфигура	-3384
▁результат	-3385
▁бағдарламасы	-3386
75	-3387
9"	-3388
AT	-3389
aw	-3390
ax	-3391
js	-3392
nc	-3393
АЭ	-3394
ДА	-3395
КО	-3396
ЛА	-3397
ТО	-3398
ЫҚ	-3399
ря	-3400
-12	-3401
arm	-3402
гор	-3403
ерх	-3404
иро	-3405
ица	-3406
лес	-3407
нок	-3408
оск	-3409
тай	-3410
шын	-3411
▁Ең	-3412
▁Ой	-3413
▁аэ	-3414
▁ев	-3415
▁кг	-3416
▁әу	-3417
алай	-3418
басы	-3419
елик	-3420
елич	-3421
енно	-3422
ерту	-3423
иним	-3424
лады	-3425
лігі	-3426
мите	-3427
онда	-3428
пуль	-3429
урыз	-3430
учше	-3431
цией	-3432
ымал	-3433
өлік	-3434
▁250	-3435
▁Air	-3436
▁App	-3437
▁Sol	-3438
▁Воз	-3439
▁Выс	-3440
▁Кам	-3441
▁Мар	-3442
▁Нап	-3443
▁Тал	-3444
▁ван	-3445
▁еді	-3446
▁зав	-3447
▁кес	-3448
▁пож	-3449
▁рай	-3450
▁сый	-3451
▁тік	-3452
▁тұл	-3453
арлар	-3454
аторы	-3455
гінің	-3456
дение	-3457
есяти	-3458
ивать	-3459
ранич	-3460
тарын	-3461
тілік	-3462
▁Росс	-3463
▁Техн	-3464
▁Швей	-3465
▁апта	-3466
▁банк	-3467
▁внеш	-3468
▁круп	-3469
▁один	-3470
▁опыт	-3471
▁прив	-3472
▁сент	-3473
▁соци	-3474
▁труб	-3475
▁әрек	-3476
аларын	-3477
альным	-3478
быстық	-3479
ержаве	-3480
қатына	-3481
▁Бірақ	-3482
▁Ответ	-3483
▁артық	-3484
▁бірге	-3485
▁добав	-3486
▁кепіл	-3487
▁көмек	-3488
▁нужно	-3489
▁произ	-3490
▁сообщ	-3491
▁сәуір	-3492
▁табиғ	-3493
▁январ	-3494
▁істеу	-3495
уреттер	-3496
▁Солнеч	-3497
▁вашего	-3498
▁выстав	-3499
▁зертте	-3500
▁келеді	-3501
▁команд	-3502
▁медици	-3503
▁облысы	-3504
развуков	-3505
▁Алдыңғы	-3506
▁белгілі	-3507
▁комитет	-3508
▁күнтізб	-3509
▁пользов	-3510
▁принтер	-3511
▁энергет	-3512
▁қосымша	-3513
▁Министер	-3514
▁белсенді	-3515
▁качества	-3516
▁осуществ	-3517
▁подготов	-3518
▁преподав	-3519
▁эффектив	-3520
▁кәсіпорын	-3521
▁программы	-3522
▁фабрикасы	-3523
▁мониторинг	-3524
▁поставщики	-3525
▁составляет	-3526
▁технологий	-3527
▁использован	-3528
▁официального	-3529
▁татуировкасы	-3530
▁International	-3531
62	-3532
88	-3533
ID	-3534
IT	-3535
ai	-3536
bo	-3537
yl	-3538
Ав	-3539
Ал	-3540
ищ	-3541
ям	-3542
ән	-3543
▁h	-3544
▁v	-3545
.05	-3546
:00	-3547
ant	-3548
end	-3549
ite	-3550
lot	-3551
low	-3552
pro	-3553
аев	-3554
дав	-3555
ерв	-3556
зад	-3557
ицы	-3558
маг	-3559
нат	-3560
няя	-3561
сақ	-3562
тып	-3563
уды	-3564
ума	-3565
ьте	-3566
▁1)	-3567
▁1-	-3568
▁6.	-3569
▁Ps	-3570
▁Ro	-3571
▁ла	-3572
▁ты	-3573
▁ул	-3574
▁іс	-3575
▁Құ	-3576
-200	-3577
/201	-3578
cell	-3579
ener	-3580
evel	-3581
roup	-3582
айда	-3583
амыр	-3584
аний	-3585
глий	-3586
ести	-3587
истр	-3588
ктор	-3589
лаго	-3590
месі	-3591
олет	-3592
хана	-3593
ябрь	-3594
іпті	-3595
ғалт	-3596
▁300	-3597
▁GPS	-3598
▁The	-3599
▁Все	-3600
▁Гор	-3601
▁Деп	-3602
▁Жал	-3603
▁Раб	-3604
▁ТОО	-3605
▁аль	-3606
▁баз	-3607
▁важ	-3608
▁дев	-3609
▁жив	-3610
▁ман	-3611
▁мощ	-3612
▁мың	-3613
▁рам	-3614
▁рол	-3615
▁сто	-3616
▁төз	-3617
▁усп	-3618
▁фит	-3619
.2015	-3620
астыр	-3621
дыдущ	-3622
оглас	-3623
рокер	-3624
▁біре	-3625
▁вним	-3626
▁егер	-3627
▁июня	-3628
▁кесу	-3629
▁ключ	-3630
▁лист	-3631
▁нами	-3632
▁наук	-3633
▁пери	-3634
▁форм	-3635
▁этот	-3636
▁әдет	-3637
▁өкіл	-3638
центра	-3639
▁Black	-3640
▁Smart	-3641
▁После	-3642
▁Швейц	-3643
▁аймақ	-3644
▁культ	-3645
▁мекен	-3646
▁нәрсе	-3647
▁полож	-3648
▁ресур	-3649
▁собой	-3650
▁тарих	-3651
▁цилин	-3652
▁қарым	-3653
енттері	-3654
тешеств	-3655
▁Takeda	-3656
▁Матери	-3657
▁Сервер	-3658
▁времен	-3659
▁данных	-3660
▁десяти	-3661
▁должны	-3662
▁национ	-3663
▁шаруаш	-3664
ализации	-3665
дырылған	-3666
таушылар	-3667
▁Премьер	-3668
▁аппарат	-3669
▁бизнеса	-3670
▁договор	-3671
▁инженер	-3672
▁комплек	-3673
▁помощью	-3674
▁сотрудн	-3675
ықтандыру	-3676
▁Ответить	-3677
▁диагност	-3678
▁жағдайда	-3679
▁препарат	-3680
▁работает	-3681
▁қыркүйек	-3682
▁баспайтын	-3683
▁истечении	-3684
▁президент	-3685
▁образования	-3686
▁университета	-3687
▁опубликования	-3688
!!	-3689
,7	-3690
17	-3691
6"	-3692
??	-3693
UD	-3694
av	-3695
ix	-3696
ПУ	-3697
ЭК	-3698
по	-3699
рт	-3700
эф	-3701
ғу	-3702
age	-3703
ins	-3704
ock	-3705
old	-3706
oun	-3707
ple	-3708
rom	-3709
гог	-3710
дия	-3711
иды	-3712
кач	-3713
мещ	-3714
роз	-3715
рут	-3716
сан	-3717
уел	-3718
цип	-3719
іні	-3720
әрі	-3721
▁2-	-3722
▁4,	-3723
▁55	-3724
▁>>	-3725
▁Al	-3726
▁Be	-3727
▁of	-3728
▁Тө	-3729
▁сх	-3730
▁Қо	-3731
▁ұз	-3732
....	-3733
="2.	-3734
айте	-3735
гіне	-3736
дать	-3737
икон	-3738
ольш	-3739
раст	-3740
ском	-3741
упер	-3742
▁150	-3743
▁SMS	-3744
▁Күн	-3745
▁Сал	-3746
▁Сам	-3747
▁Тем	-3748
▁бос	-3749
▁два	-3750
▁еск	-3751
▁еще	-3752
▁кір	-3753
▁лит	-3754
▁мом	-3755
▁нан	-3756
▁нет	-3757
▁пал	-3758
▁пат	-3759
▁пос	-3760
▁цен	-3761
▁ірі	-3762
▁қап	-3763
▁үст	-3764
.2016	-3765
itish	-3766
анные	-3767
аттық	-3768
ларын	-3769
менты	-3770
ғының	-3771
қашан	-3772
▁2009	-3773
▁Life	-3774
▁Wart	-3775
▁Азия	-3776
▁Порт	-3777
▁стер	-3778
▁стро	-3779
▁удал	-3780
▁факт	-3781
апайым	-3782
делген	-3783
едагог	-3784
есінде	-3785
щества	-3786
ғылшын	-3787
▁Бүгін	-3788
▁Тегін	-3789
▁батар	-3790
▁ведущ	-3791
▁запис	-3792
▁кәсіп	-3793
▁между	-3794
▁мәлім	-3795
▁назад	-3796
▁проис	-3797
▁рабоч	-3798
▁серии	-3799
▁серия	-3800
▁тамыз	-3801
▁тәрті	-3802
▁числе	-3803
▁қысым	-3804
зидента	-3805
ография	-3806
ционных	-3807
ңтүстік	-3808
▁Жабдық	-3809
▁Систем	-3810
▁диплом	-3811
▁другие	-3812
▁мақсат	-3813
▁нөмірі	-3814
▁состоя	-3815
▁спорта	-3816
▁структ	-3817
▁утверж	-3818
▁қараша	-3819
▁құралы	-3820
алығында	-3821
нодатель	-3822
▁Wartrol	-3823
▁адамдар	-3824
▁болатын	-3825
▁которая	-3826
▁нержаве	-3827
▁предлаг	-3828
▁проекта	-3829
▁рекомен	-3830
▁танымал	-3831
▁өйткені	-3832
▁өсімдік	-3833
▁Мобильді	-3834
▁институт	-3835
▁көмектес	-3836
▁программ	-3837
▁скорость	-3838
▁жабдықтар	-3839
▁желтоқсан	-3840
▁сондықтан	-3841
▁Президента	-3842
▁информации	-3843
▁техникалық	-3844
▁требования	-3845
▁календарных	-3846
▁ұйымдастыру	-3847
▁соответствии	-3848
▁қызметкерлер	-3849
,1	-3850
-9	-3851
07	-3852
6)	-3853
AP	-3854
ep	-3855
sh	-3856
uf	-3857
ІН	-3858
ІР	-3859
ЛИ	-3860
СК	-3861
ну	-3862
қт	-3863
▁y	-3864
ain	-3865
air	-3866
cil	-3867
ice	-3868
ond	-3869
ась	-3870
иля	-3871
йды	-3872
мас	-3873
овь	-3874
реп	-3875
тең	-3876
▁1:	-3877
▁33	-3878
▁to	-3879
▁Оқ	-3880
▁ПВ	-3881
▁ПО	-3882
▁Ре	-3883
▁ге	-3884
▁ее	-3885
ator	-3886
азин	-3887
вает	-3888
вают	-3889
екші	-3890
еңіз	-3891
илер	-3892
ился	-3893
инбо	-3894
лена	-3895
озяй	-3896
роме	-3897
шіру	-3898
ығыз	-3899
ятся	-3900
▁10.	-3901
▁800	-3902
▁Blu	-3903
▁SEM	-3904
▁the	-3905
▁Бог	-3906
▁Ваш	-3907
▁Наш	-3908
▁Сон	-3909
▁Тір	-3910
▁Что	-3911
▁вес	-3912
▁гүл	-3913
▁заб	-3914
▁кап	-3915
▁мал	-3916
▁наз	-3917
▁най	-3918
▁поб	-3919
▁руб	-3920
▁тот	-3921
▁тыс	-3922
▁хат	-3923
▁цел	-3924
▁шек	-3925
▁шол	-3926
▁Ұлы	-3927
.2019	-3928
астар	-3929
енной	-3930
изайн	-3931
кімет	-3932
люмин	-3933
опрос	-3934
отехн	-3935
талия	-3936
терін	-3937
▁2000	-3938
▁абон	-3939
▁алып	-3940
▁арал	-3941
▁бойы	-3942
▁воды	-3943
▁дома	-3944
▁игра	-3945
▁кажд	-3946
▁онда	-3947
▁оцен	-3948
▁проч	-3949
▁степ	-3950
▁файл	-3951
▁өзін	-3952
rosoft	-3953
ағанда	-3954
вается	-3955
ойызда	-3956
▁Адрес	-3957
▁Пласт	-3958
▁асыру	-3959
▁вмест	-3960
▁всего	-3961
▁динам	-3962
▁карта	-3963
▁надеж	-3964
▁недел	-3965
▁транс	-3966
▁Құрыл	-3967
▁қазан	-3968
▁қоғам	-3969
ционный	-3970
▁Барлық	-3971
▁белгіл	-3972
▁екенін	-3973
▁кабель	-3974
▁лиценз	-3975
▁провер	-3976
▁раздел	-3977
▁сервис	-3978
▁содерж	-3979
▁құрамы	-3980
енсаулық	-3981
▁Council	-3982
▁Ақпарат	-3983
▁организ	-3984
▁төзімді	-3985
▁уақытта	-3986
▁ұсынады	-3987
Қазақстан	-3988
▁некоторы	-3989
▁оператор	-3990
▁функцион	-3991
▁өндіруші	-3992
радыбыстық	-3993
▁бесплатно	-3994
▁Международ	-3995
▁орналасқан	-3996
▁организации	-3997
▁саласындағы	-3998
▁производства	-3999
▁технологиясы	-4000
▁Жабдықтаушылар	-4001
1.	-4002
2-	-4003
4)	-4004
5)	-4005
8-	-4006
EL	-4007
PC	-4008
PO	-4009
co	-4010
ey	-4011
se	-4012
ya	-4013
АМ	-4014
АЦ	-4015
аф	-4016
зн	-4017
иш	-4018
фе	-4019
▁Ғ	-4020
="5	-4021
ire	-4022
ани	-4023
арь	-4024
гля	-4025
гос	-4026
дух	-4027
ейн	-4028
жым	-4029
зет	-4030
зин	-4031
ине	-4032
иты	-4033
кую	-4034
лод	-4035
мал	-4036
пка	-4037
рид	-4038
рис	-4039
роб	-4040
рыс	-4041
сау	-4042
▁(3	-4043
▁05	-4044
▁43	-4045
▁85	-4046
▁99	-4047
▁MB	-4048
▁Or	-4049
▁Tr	-4050
▁by	-4051
▁Ди	-4052
▁гл	-4053
="0.	-4054
="4.	-4055
land	-4056
аточ	-4057
едел	-4058
еден	-4059
емат	-4060
емен	-4061
ивал	-4062
курс	-4063
ляют	-4064
овер	-4065
тыру	-4066
хмет	-4067
част	-4068
▁10:	-4069
▁25-	-4070
▁CNC	-4071
▁Cat	-4072
▁EUR	-4073
▁Vis	-4074
▁Ген	-4075
▁Екі	-4076
▁Жет	-4077
▁Кан	-4078
▁Маш	-4079
▁Они	-4080
▁Рег	-4081
▁арт	-4082
▁бұз	-4083
▁вак	-4084
▁веч	-4085
▁дня	-4086
▁лин	-4087
▁над	-4088
▁неп	-4089
▁ник	-4090
▁пан	-4091
▁поэ	-4092
▁тағ	-4093
▁теп	-4094
▁тыр	-4095
▁эти	-4096
асына	-4097
мейді	-4098
очная	-4099
разий	-4100
ровод	-4101
тарға	-4102
токол	-4103
эньчж	-4104
▁2007	-4105
▁Банк	-4106
▁Брен	-4107
▁Госу	-4108
▁Дата	-4109
▁Ойын	-4110
▁блок	-4111
▁ереж	-4112
▁метр	-4113
▁оған	-4114
▁ішкі	-4115
▁қосу	-4116
изация	-4117
качать	-4118
ований	-4119
ілетін	-4120
▁China	-4121
▁Group	-4122
▁Бонус	-4123
▁Менің	-4124
▁Нинбо	-4125
▁адрес	-4126
▁ауқым	-4127
▁бекіт	-4128
▁валют	-4129
▁ерекш	-4130
▁квали	-4131
▁навиг	-4132
▁нашей	-4133
▁покуп	-4134
▁приро	-4135
▁резки	-4136
▁тонна	-4137
▁центр	-4138
алардың	-4139
ическим	-4140
рования	-4141
ғалтқыш	-4142
▁Ассоци	-4143
▁Электр	-4144
▁доктор	-4145
▁индуст	-4146
▁исключ	-4147
▁корпор	-4148
▁модуль	-4149
▁период	-4150
▁рамках	-4151
▁соедин	-4152
▁увелич	-4153
▁упаков	-4154
ительный	-4155
ционного	-4156
▁British	-4157
▁автомоб	-4158
▁дейінгі	-4159
▁жеткізу	-4160
▁жетімді	-4161
▁партнер	-4162
▁серікте	-4163
▁тақырып	-4164
▁түрлері	-4165
▁участие	-4166
▁француз	-4167
ительства	-4168
▁көптеген	-4169
▁получить	-4170
▁Microsoft	-4171
▁фармацевт	-4172
▁өнеркәсіп	-4173
▁Technology	-4174
▁необходимо	-4175
▁Халықаралық	-4176
▁медициналық	-4177
▁қауіпсіздік	-4178
26	-4179
AD	-4180
ES	-4181
ET	-4182
II	-4183
RC	-4184
eg	-4185
ld	-4186
lo	-4187
pe	-4188
uk	-4189
ЕГ	-4190
ИЗ	-4191
Ст	-4192
ЫС	-4193
кл	-4194
си	-4195
ча	-4196
ях	-4197
▁е	-4198
eat	-4199
Дел	-4200
анг	-4201
бел	-4202
зор	-4203
иск	-4204
иян	-4205
кем	-4206
кты	-4207
лед	-4208
ону	-4209
сия	-4210
ско	-4211
тот	-4212
точ	-4213
уда	-4214
уть	-4215
хим	-4216
чин	-4217
▁3-	-4218
▁38	-4219
▁CD	-4220
▁Ex	-4221
▁IS	-4222
▁Ру	-4223
▁сы	-4224
ical	-4225
алуй	-4226
атыр	-4227
ағым	-4228
ақта	-4229
грам	-4230
дель	-4231
дени	-4232
долж	-4233
ерін	-4234
етел	-4235
идео	-4236
кізу	-4237
лено	-4238
нейш	-4239
ожде	-4240
озер	-4241
оран	-4242
плей	-4243
руго	-4244
стың	-4245
ылуы	-4246
ығыс	-4247
▁14.	-4248
▁Жұм	-4249
▁Куп	-4250
▁МВт	-4251
▁ПВХ	-4252
▁Тар	-4253
▁Тех	-4254
▁вой	-4255
▁гал	-4256
▁дем	-4257
▁душ	-4258
▁кто	-4259
▁мой	-4260
▁низ	-4261
▁пог	-4262
▁түй	-4263
▁уст	-4264
арлық	-4265
ассаж	-4266
дігін	-4267
есіне	-4268
ечень	-4269
ларды	-4270
оволь	-4271
орекс	-4272
стоян	-4273
талық	-4274
ысалы	-4275
▁Соны	-4276
▁Студ	-4277
▁асыр	-4278
▁ауру	-4279
▁даль	-4280
▁един	-4281
▁жеті	-4282
▁карт	-4283
▁кест	-4284
▁киім	-4285
▁оңай	-4286
▁поез	-4287
▁типа	-4288
▁Өнім	-4289
urance	-4290
аларға	-4291
мотрен	-4292
ностей	-4293
раждан	-4294
тардың	-4295
тарына	-4296
▁Астан	-4297
▁авток	-4298
▁билет	-4299
▁бізге	-4300
▁бүкіл	-4301
▁выбор	-4302
▁жалға	-4303
▁жылға	-4304
▁лазер	-4305
▁лучше	-4306
▁нарық	-4307
▁наших	-4308
▁номер	-4309
▁пайыз	-4310
▁поезд	-4311
▁порно	-4312
▁поряд	-4313
▁среди	-4314
▁трубы	-4315
▁тіпті	-4316
▁құқық	-4317
▁өңдеу	-4318
алуйста	-4319
андидат	-4320
ивается	-4321
ликалық	-4322
ношения	-4323
▁Келесі	-4324
▁акцион	-4325
▁арнайы	-4326
▁бағасы	-4327
▁быстро	-4328
▁декабр	-4329
▁екінші	-4330
▁заключ	-4331
▁инвест	-4332
▁модель	-4333
▁оларды	-4334
▁основе	-4335
▁соверш	-4336
▁сыртқы	-4337
▁тамаша	-4338
▁торгов	-4339
▁тіркел	-4340
▁қаңтар	-4341
▁үлгісі	-4342
▁Сонымен	-4343
▁Франция	-4344
▁арттыру	-4345
▁аудитор	-4346
▁басыңыз	-4347
▁бағалау	-4348
▁категор	-4349
▁которых	-4350
▁образом	-4351
▁подключ	-4352
▁предлож	-4353
▁продолж	-4354
▁рейтинг	-4355
▁системе	-4356
▁қатысты	-4357
ированный	-4358
▁Предыдущ	-4359
▁дайындау	-4360
▁машинасы	-4361
▁мемлекет	-4362
▁норматив	-4363
▁обучения	-4364
▁министрлі	-4365
▁обязатель	-4366
▁қорытынды	-4367
▁специалист	-4368
▁әлеуметтік	-4369
▁Мемлекеттік	-4370
▁күнтізбелік	-4371
▁электронной	-4372
▁қолданылады	-4373
▁Государствен	-4374
▁оборудования	-4375
5-	-4376
ek	-4377
ge	-4378
ys	-4379
ІМ	-4380
АВ	-4381
гр	-4382
жи	-4383
ши	-4384
эн	-4385
юй	-4386
▁%	-4387
▁@	-4388
▁l	-4389
250	-4390
4">	-4391
9">	-4392
AUD	-4393
for	-4394
hat	-4395
orn	-4396
алл	-4397
арм	-4398
дес	-4399
ейс	-4400
етр	-4401
еть	-4402
кав	-4403
люс	-4404
нын	-4405
очь	-4406
ысу	-4407
▁(7	-4408
▁00	-4409
▁03	-4410
▁07	-4411
▁2:	-4412
▁3:	-4413
▁Ad	-4414
▁Hu	-4415
▁PC	-4416
▁ST	-4417
▁Sk	-4418
▁Вс	-4419
▁Им	-4420
▁зв	-4421
анал	-4422
аров	-4423
вать	-4424
егда	-4425
егіз	-4426
емет	-4427
ками	-4428
коло	-4429
лада	-4430
налы	-4431
орог	-4432
рест	-4433
рлік	-4434
спен	-4435
ству	-4436
стре	-4437
тому	-4438
улар	-4439
ульд	-4440
уска	-4441
ымда	-4442
▁Bit	-4443
▁sec	-4444
▁Ист	-4445
▁Код	-4446
▁Май	-4447
▁Мол	-4448
▁Нет	-4449
▁Нов	-4450
▁Рез	-4451
▁Тон	-4452
▁Тур	-4453
▁выз	-4454
▁жай	-4455
▁мне	-4456
▁нат	-4457
▁окт	-4458
▁сом	-4459
▁чув	-4460
-2017	-4461
дерді	-4462
ингап	-4463
кцион	-4464
летка	-4465
ровой	-4466
ывает	-4467
ынған	-4468
ілігі	-4469
▁2011	-4470
▁Comp	-4471
▁Лучш	-4472
▁Оның	-4473
▁бөлш	-4474
▁введ	-4475
▁клин	-4476
▁назы	-4477
▁него	-4478
▁норм	-4479
▁орау	-4480
▁ошиб	-4481
▁оқыт	-4482
▁сети	-4483
▁слот	-4484
▁стор	-4485
▁теат	-4486
▁терм	-4487
▁фили	-4488
▁шкал	-4489
▁үнем	-4490
астыру	-4491
ерттеу	-4492
изации	-4493
ировки	-4494
лением	-4495
невмат	-4496
опросы	-4497
рабаты	-4498
уелсіз	-4499
▁Велик	-4500
▁Нидер	-4501
▁Рожде	-4502
▁дизай	-4503
▁жақын	-4504
▁заказ	-4505
▁заним	-4506
▁конус	-4507
▁любой	-4508
▁мәтін	-4509
▁обрат	-4510
▁около	-4511
▁остав	-4512
▁отрас	-4513
▁полит	-4514
▁порош	-4515
▁треть	-4516
▁қаржы	-4517
▁қонақ	-4518
▁қысқа	-4519
▁өзгер	-4520
лагодар	-4521
ственно	-4522
▁Алюмин	-4523
▁Еуропа	-4524
▁ауданы	-4525
▁всегда	-4526
▁группы	-4527
▁журнал	-4528
▁кейбір	-4529
▁конвер	-4530
▁күннен	-4531
▁переда	-4532
▁помочь	-4533
▁таңдау	-4534
▁услуги	-4535
▁Орталық	-4536
▁Стандар	-4537
▁жоғарғы	-4538
▁жүйелер	-4539
▁интегра	-4540
▁констру	-4541
▁обработ	-4542
▁пластик	-4543
▁совмест	-4544
▁тексеру	-4545
▁тікелей	-4546
▁тұрақты	-4547
▁функция	-4548
▁шкаласы	-4549
▁қызметі	-4550
▁құрайды	-4551
▁әйелдер	-4552
▁Институт	-4553
▁департам	-4554
▁лицензия	-4555
▁продукта	-4556
▁развития	-4557
▁создания	-4558
▁территор	-4559
▁финансов	-4560
▁құрылымы	-4561
▁Продуктов	-4562
▁машиналар	-4563
▁продуктов	-4564
▁тестостер	-4565
▁факультет	-4566
▁қаласының	-4567
▁арасындағы	-4568
▁жылдамдығы	-4569
▁устройства	-4570
▁керамикалық	-4571
▁нержавеющей	-4572
▁законодатель	-4573
▁используется	-4574
▁сотрудничеств	-4575
29	-4576
81	-4577
CL	-4578
OM	-4579
SL	-4580
ff	-4581
ok	-4582
ph	-4583
ps	-4584
ИР	-4585
КС	-4586
РО	-4587
ТА	-4588
кв	-4589
че	-4590
әс	-4591
-20	-4592
.03	-4593
.06	-4594
ash	-4595
els	-4596
ino	-4597
min	-4598
ood	-4599
бит	-4600
дин	-4601
ебі	-4602
жыр	-4603
ило	-4604
кеу	-4605
ляр	-4606
мит	-4607
мос	-4608
міт	-4609
паз	-4610
печ	-4611
сид	-4612
сти	-4613
тон	-4614
тті	-4615
унд	-4616
уыт	-4617
ями	-4618
ілу	-4619
іру	-4620
ғыс	-4621
▁(0	-4622
▁Gl	-4623
▁Су	-4624
▁оф	-4625
▁ық	-4626
▁Үл	-4627
▁әл	-4628
lear	-4629
uper	-4630
urer	-4631
бург	-4632
елек	-4633
емые	-4634
жайы	-4635
ивая	-4636
ирту	-4637
итан	-4638
кент	-4639
обод	-4640
олож	-4641
омин	-4642
пуск	-4643
рият	-4644
скую	-4645
техн	-4646
ырау	-4647
▁50%	-4648
▁600	-4649
▁Вин	-4650
▁Зав	-4651
▁Кең	-4652
▁Мон	-4653
▁Наз	-4654
▁Тип	-4655
▁Фин	-4656
▁ала	-4657
▁ант	-4658
▁зал	-4659
▁инг	-4660
▁кен	-4661
▁кет	-4662
▁күй	-4663
▁мая	-4664
▁ней	-4665
▁опт	-4666
▁сым	-4667
▁сүй	-4668
▁Қор	-4669
▁өсу	-4670
ufact	-4671
дание	-4672
дерін	-4673
енным	-4674
ивает	-4675
лайды	-4676
образ	-4677
орлық	-4678
очной	-4679
утств	-4680
шение	-4681
▁Джон	-4682
▁Отан	-4683
▁Проф	-4684
▁втор	-4685
▁жары	-4686
▁жылу	-4687
▁идея	-4688
▁поли	-4689
▁прев	-4690
▁слож	-4691
▁сцен	-4692
▁тури	-4693
▁цент	-4694
▁чист	-4695
▁қосп	-4696
▁құны	-4697
▁өзге	-4698
▁өтті	-4699
ивание	-4700
икация	-4701
имость	-4702
керлер	-4703
муника	-4704
оприят	-4705
пример	-4706
тамасы	-4707
▁Жалпы	-4708
▁Основ	-4709
▁агент	-4710
▁басты	-4711
▁бренд	-4712
▁депут	-4713
▁дерев	-4714
▁детей	-4715
▁зауыт	-4716
▁кеңес	-4717
▁кітап	-4718
▁мамыр	-4719
▁налич	-4720
▁новый	-4721
▁обнов	-4722
▁оконч	-4723
▁орнат	-4724
▁рынка	-4725
▁сарап	-4726
▁соның	-4727
▁стрем	-4728
▁такие	-4729
▁тығыз	-4730
▁части	-4731
▁шағын	-4732
▁шетел	-4733
▁әрбір	-4734
▁өлшем	-4735
Австрал	-4736
ациялар	-4737
дарымен	-4738
▁Академ	-4739
▁Шэньчж	-4740
▁вопрос	-4741
▁города	-4742
▁жылдан	-4743
▁нұсқау	-4744
▁помощи	-4745
▁приним	-4746
▁просто	-4747
▁регули	-4748
▁сохран	-4749
▁термин	-4750
▁өмірді	-4751
▁Медицин	-4752
▁Пойызда	-4753
▁Система	-4754
▁Украина	-4755
▁алдында	-4756
▁времени	-4757
▁высокой	-4758
▁доллары	-4759
▁жетекші	-4760
▁постоян	-4761
▁сделать	-4762
▁уровень	-4763
▁қалыпта	-4764
▁қолдану	-4765
ufacturer	-4766
▁Оңтүстік	-4767
▁Перечень	-4768
▁внимание	-4769
▁психолог	-4770
▁сентября	-4771
▁современ	-4772
▁изменения	-4773
▁концентра	-4774
▁различных	-4775
▁специализ	-4776
▁студентов	-4777
▁қызметтер	-4778
▁аралығында	-4779
▁инструмент	-4780
▁предприним	-4781
▁стандартты	-4782
▁тәжірибесі	-4783
▁шаруашылығы	-4784
▁Manufacturer	-4785
▁оборудование	-4786
1,	-4787
19	-4788
43	-4789
6-	-4790
cm	-4791
nl	-4792
ux	-4793
»)	-4794
ДЕ	-4795
ИЛ	-4796
ИМ	-4797
СЫ	-4798
фр	-4799
-01	-4800
-14	-4801
-16	-4802
="3	-4803
DTN	-4804
ave	-4805
enn	-4806
ext	-4807
her	-4808
hon	-4809
ich	-4810
ick	-4811
ise	-4812
kru	-4813
ler	-4814
yst	-4815
АСЫ	-4816
ати	-4817
был	-4818
вещ	-4819
ейч	-4820
зна	-4821
йте	-4822
кин	-4823
лит	-4824
пай	-4825
пус	-4826
рот	-4827
тоб	-4828
тым	-4829
фон	-4830
хит	-4831
шар	-4832
шир	-4833
ъем	-4834
өзі	-4835
▁47	-4836
▁7.	-4837
▁He	-4838
▁Hi	-4839
▁NL	-4840
▁Де	-4841
▁Кл	-4842
▁Ко	-4843
▁СТ	-4844
▁Сә	-4845
▁Юж	-4846
▁зн	-4847
▁км	-4848
▁ох	-4849
="6.	-4850
ated	-4851
onic	-4852
алее	-4853
алың	-4854
амын	-4855
анти	-4856
апаз	-4857
арии	-4858
густ	-4859
далы	-4860
енци	-4861
лены	-4862
лять	-4863
малы	-4864
насы	-4865
стаФ	-4866
ілде	-4867
ісім	-4868
ғасы	-4869
▁Буд	-4870
▁Вес	-4871
▁Гон	-4872
▁Доб	-4873
▁Док	-4874
▁Дом	-4875
▁Рад	-4876
▁Сев	-4877
▁Сод	-4878
▁Хан	-4879
▁ЧПУ	-4880
▁Чем	-4881
▁ауы	-4882
▁мор	-4883
▁мән	-4884
▁ром	-4885
▁сиг	-4886
▁сим	-4887
▁ыды	-4888
▁эмо	-4889
-2018	-4890
kruen	-4891
адрат	-4892
атқыш	-4893
гілер	-4894
дығын	-4895
ердің	-4896
жылық	-4897
очник	-4898
қанда	-4899
▁2005	-4900
▁8.50	-4901
▁Бель	-4902
▁Вост	-4903
▁Высо	-4904
▁Иран	-4905
▁Лонд	-4906
▁Прин	-4907
▁Сайт	-4908
▁Цена	-4909
▁Этот	-4910
▁адап	-4911
▁бума	-4912
▁доку	-4913
▁игры	-4914
▁итог	-4915
▁нары	-4916
▁неза	-4917
▁особ	-4918
▁попу	-4919
▁прой	-4920
▁свет	-4921
▁спис	-4922
▁сфер	-4923
▁тілі	-4924
▁широ	-4925
▁этой	-4926
▁ізде	-4927
▁ұялы	-4928
▁әкім	-4929
Делиль	-4930
Минист	-4931
ровать	-4932
шылары	-4933
ығырақ	-4934
ілігін	-4935
▁Желез	-4936
▁Китая	-4937
▁Кроме	-4938
▁білді	-4939
▁голов	-4940
▁жинақ	-4941
▁искус	-4942
▁кешен	-4943
▁күшті	-4944
▁лабор	-4945
▁новых	-4946
▁нысан	-4947
▁права	-4948
▁радио	-4949
▁робот	-4950
▁ролик	-4951
▁своих	-4952
▁такое	-4953
▁хозяй	-4954
▁часов	-4955
▁Қазақ	-4956
▁қабыр	-4957
▁қарай	-4958
ларының	-4959
фикации	-4960
▁kkruen	-4961
▁Валент	-4962
▁Дизайн	-4963
▁Италия	-4964
▁Сингап	-4965
▁Читать	-4966
▁мұндай	-4967
▁наурыз	-4968
▁научно	-4969
▁публик	-4970
▁статьи	-4971
▁Қызмет	-4972
▁ұлттық	-4973
артылған	-4974
британия	-4975
етикалық	-4976
ульдозер	-4977
цияларды	-4978
▁Евразий	-4979
▁батарея	-4980
▁беретін	-4981
▁государ	-4982
▁декабря	-4983
▁жасауға	-4984
▁кабинет	-4985
▁огранич	-4986
▁определ	-4987
▁силикон	-4988
▁хабарла	-4989
▁энергии	-4990
▁протокол	-4991
▁тапсырыс	-4992
▁лаборатор	-4993
▁мероприят	-4994
▁программа	-4995
▁қарапайым	-4996
▁информация	-4997
▁мүмкіндігі	-4998
▁татуировки	-4999
▁управление	-5000
▁электричес	-5001
▁инновациялық	-5002
▁бағдарламасын	-5003
▁производитель	-5004
▁государственных	-5005
,0	-5006
09	-5007
3%	-5008
61	-5009
8)	-5010
ED	-5011
KU	-5012
ON	-5013
VI	-5014
pl	-5015
sp	-5016
ИЙ	-5017
Об	-5018
ви	-5019
фи	-5020
▁?	-5021
▁g	-5022
-24	-5023
100	-5024
App	-5025
ale	-5026
ear	-5027
ium	-5028
oot	-5029
ram	-5030
баб	-5031
бан	-5032
буд	-5033
вал	-5034
дею	-5035
дис	-5036
ене	-5037
иму	-5038
ице	-5039
каж	-5040
лай	-5041
лақ	-5042
лия	-5043
мар	-5044
ния	-5045
сед	-5046
сов	-5047
уск	-5048
чис	-5049
шка	-5050
ьют	-5051
ғақ	-5052
ңғы	-5053
▁34	-5054
▁37	-5055
▁5%	-5056
▁5)	-5057
▁Pr	-5058
▁al	-5059
▁ch	-5060
▁Ер	-5061
▁ЖШ	-5062
▁Та	-5063
▁ры	-5064
▁сү	-5065
▁ұм	-5066
ound	-5067
quot	-5068
алан	-5069
анда	-5070
гляд	-5071
евых	-5072
емый	-5073
заим	-5074
ирус	-5075
лава	-5076
либо	-5077
ожет	-5078
окол	-5079
отон	-5080
пуст	-5081
разд	-5082
реди	-5083
рост	-5084
слуг	-5085
суль	-5086
торы	-5087
тына	-5088
явля	-5089
ірік	-5090
▁(19	-5091
▁120	-5092
▁12:	-5093
▁Cnc	-5094
▁Cor	-5095
▁Ver	-5096
▁Wor	-5097
▁Гид	-5098
▁Жас	-5099
▁Кли	-5100
▁Кос	-5101
▁Кур	-5102
▁Лиц	-5103
▁Маг	-5104
▁Сем	-5105
▁Тот	-5106
▁Чер	-5107
▁алы	-5108
▁бир	-5109
▁бро	-5110
▁гер	-5111
▁гри	-5112
▁зер	-5113
▁иму	-5114
▁кос	-5115
▁лич	-5116
▁нит	-5117
▁пун	-5118
▁рей	-5119
▁соп	-5120
▁сре	-5121
▁тас	-5122
▁ток	-5123
▁фун	-5124
▁хар	-5125
▁шеб	-5126
▁экз	-5127
-2016	-5128
ivers	-5129
obile	-5130
авлод	-5131
актер	-5132
амдар	-5133
густа	-5134
діңіз	-5135
ейчас	-5136
енная	-5137
ирует	-5138
обрит	-5139
очных	-5140
ритер	-5141
ститу	-5142
тайды	-5143
▁2004	-5144
▁Amaz	-5145
▁Ener	-5146
▁Бесп	-5147
▁Шыны	-5148
▁ашық	-5149
▁верс	-5150
▁заяв	-5151
▁орыс	-5152
▁пере	-5153
▁прос	-5154
▁силь	-5155
▁слов	-5156
▁срав	-5157
▁сілт	-5158
▁тасы	-5159
▁тұлғ	-5160
▁укра	-5161
▁шолу	-5162
▁юрид	-5163
▁құқы	-5164
▁үміт	-5165
▁әріп	-5166
ивания	-5167
керлік	-5168
кетинг	-5169
немесе	-5170
талады	-5171
▁Kcell	-5172
▁Еураз	-5173
▁Интер	-5174
▁Негіз	-5175
▁Орган	-5176
▁алдын	-5177
▁атқар	-5178
▁білік	-5179
▁бүгін	-5180
▁докум	-5181
▁друго	-5182
▁дәреж	-5183
▁жерде	-5184
▁имени	-5185
▁иност	-5186
▁менее	-5187
▁месяц	-5188
▁мульт	-5189
▁науки	-5190
▁нақты	-5191
▁перек	-5192
▁пікір	-5193
▁сайта	-5194
▁справ	-5195
▁тамақ	-5196
▁түтік	-5197
▁шекте	-5198
▁өзара	-5199
▁өшіру	-5200
авлодар	-5201
алықтар	-5202
ативтік	-5203
зерттеу	-5204
писание	-5205
теллект	-5206
терінің	-5207
яжитесь	-5208
▁Кредит	-5209
▁Сондай	-5210
▁англий	-5211
▁банков	-5212
▁выполн	-5213
▁достиг	-5214
▁заңнам	-5215
▁здоров	-5216
▁комисс	-5217
▁көлемі	-5218
▁максим	-5219
▁мәдени	-5220
▁нагруз	-5221
▁орында	-5222
▁подраз	-5223
▁регион	-5224
▁советы	-5225
▁соглас	-5226
▁солнеч	-5227
▁талдау	-5228
▁тұрады	-5229
▁тұрғын	-5230
▁шығару	-5231
▁қатысу	-5232
▁ұнтағы	-5233
▁әдетте	-5234
▁әрекет	-5235
альности	-5236
аттардың	-5237
умулятор	-5238
▁Бельгия	-5239
▁ағылшын	-5240
▁включая	-5241
▁гаранти	-5242
▁зерттеу	-5243
▁кафедра	-5244
▁керемет	-5245
▁конкурс	-5246
▁математ	-5247
▁перевод	-5248
▁популяр	-5249
▁стероид	-5250
▁қазіргі	-5251
▁құрылды	-5252
висимости	-5253
▁Конститу	-5254
▁Материал	-5255
▁иностран	-5256
▁кеңестер	-5257
▁комплекс	-5258
▁конкурса	-5259
▁медицина	-5260
▁міндетті	-5261
▁продукты	-5262
▁химиялық	-5263
▁Парламент	-5264
▁Шэньчжэнь	-5265
▁автоматты	-5266
▁директоры	-5267
▁көрсетеді	-5268
▁материалы	-5269
▁настоящее	-5270
▁негізінде	-5271
▁продукции	-5272
▁Нидерланды	-5273
▁зерттеулер	-5274
▁проведения	-5275
▁участников	-5276
▁қозғалтқыш	-5277
▁өндірістік	-5278
▁дополнитель	-5279
▁пайдалануға	-5280
▁Ұлыбритания	-5281
▁деятельность	-5282
▁исследования	-5283
▁қалыптастыру	-5284
▁гидравликалық	-5285
▁инвестициялық	-5286
▁производствен	-5287
▁пайдаланылатын	-5288
▁жарияланғанынан	-5289
,,	-5290
BA	-5291
BC	-5292
IR	-5293
PA	-5294
TM	-5295
ba	-5296
be	-5297
pr	-5298
ts	-5299
ІЛ	-5300
ГО	-5301
ЕЛ	-5302
Ев	-5303
МИ	-5304
зя	-5305
ню	-5306
оу	-5307
фа	-5308
▁'	-5309
▁=	-5310
▁x	-5311
-11	-5312
2">	-5313
717	-5314
Ins	-5315
ace	-5316
ade	-5317
ays	-5318
bit	-5319
iss	-5320
org	-5321
ton	-5322
ДАР	-5323
ТЕР	-5324
азм	-5325
ард	-5326
гла	-5327
гіс	-5328
дақ	-5329
ени	-5330
кам	-5331
лег	-5332
лиз	-5333
люз	-5334
над	-5335
ноз	-5336
ноп	-5337
тих	-5338
улы	-5339
хив	-5340
шее	-5341
ших	-5342
ірт	-5343
▁56	-5344
▁6)	-5345
▁Az	-5346
▁EN	-5347
▁Ed	-5348
▁ID	-5349
▁SD	-5350
▁Sc	-5351
▁Th	-5352
▁sh	-5353
▁Гл	-5354
▁Жү	-5355
▁Иг	-5356
▁ве	-5357
▁дж	-5358
▁ма	-5359
▁шұ	-5360
▁ұр	-5361
▁Әр	-5362
****	-5363
87">	-5364
="27	-5365
Life	-5366
enzh	-5367
ital	-5368
ited	-5369
jack	-5370
lect	-5371
stra	-5372
айка	-5373
ағаз	-5374
едер	-5375
ежай	-5376
екен	-5377
емін	-5378
енко	-5379
епро	-5380
ланд	-5381
лина	-5382
ницы	-5383
овое	-5384
ойти	-5385
олот	-5386
отос	-5387
пына	-5388
рлеу	-5389
слам	-5390
стің	-5391
тиды	-5392
ымды	-5393
ысты	-5394
▁(2)	-5395
▁180	-5396
▁30-	-5397
▁Cas	-5398
▁ISO	-5399
▁Inc	-5400
▁Pay	-5401
▁Ауд	-5402
▁ГАЗ	-5403
▁Гол	-5404
▁Душ	-5405
▁Еск	-5406
▁Зап	-5407
▁Кат	-5408
▁Нау	-5409
▁Общ	-5410
▁Она	-5411
▁Тер	-5412
▁Фак	-5413
▁жек	-5414
▁жем	-5415
▁жой	-5416
▁зак	-5417
▁неб	-5418
▁орг	-5419
▁род	-5420
▁сро	-5421
▁тре	-5422
▁тың	-5423
▁түс	-5424
▁шаш	-5425
▁қыс	-5426
▁құж	-5427
iphon	-5428
point	-5429
аются	-5430
баева	-5431
едера	-5432
ейнет	-5433
ентиф	-5434
интер	-5435
ларға	-5436
матин	-5437
мақта	-5438
наком	-5439
нение	-5440
оступ	-5441
очные	-5442
очный	-5443
ропей	-5444
сыңыз	-5445
ходящ	-5446
қынды	-5447
▁1999	-5448
▁Mach	-5449
▁Play	-5450
▁Адам	-5451
▁Баға	-5452
▁Билл	-5453
▁Кали	-5454
▁Связ	-5455
▁Цель	-5456
▁авто	-5457
▁ауыл	-5458
▁ағаш	-5459
▁байқ	-5460
▁болт	-5461
▁виды	-5462
▁глав	-5463
▁жақс	-5464
▁жерг	-5465
▁жоба	-5466
▁масс	-5467
▁маст	-5468
▁мира	-5469
▁назв	-5470
▁напр	-5471
▁наст	-5472
▁прем	-5473
▁саяс	-5474
▁сесс	-5475
▁след	-5476
▁сына	-5477
▁твор	-5478
▁тобы	-5479
▁тоқт	-5480
▁уник	-5481
▁учен	-5482
▁цель	-5483
▁ынты	-5484
▁этап	-5485
▁құру	-5486
▁әкел	-5487
альную	-5488
анский	-5489
аточно	-5490
атының	-5491
ақтары	-5492
енными	-5493
ленген	-5494
мыстық	-5495
структ	-5496
сутств	-5497
телген	-5498
іңізге	-5499
қандай	-5500
▁Pharm	-5501
▁Жария	-5502
▁Жұмыс	-5503
▁Кафед	-5504
▁Получ	-5505
▁Пікір	-5506
▁Совет	-5507
▁атауы	-5508
▁балан	-5509
▁бейне	-5510
▁берді	-5511
▁вашей	-5512
▁взаим	-5513
▁ерлер	-5514
▁завер	-5515
▁индив	-5516
▁карты	-5517
▁мүлік	-5518
▁означ	-5519
▁помог	-5520
▁право	-5521
▁пресс	-5522
▁связи	-5523
▁тұқым	-5524
▁формы	-5525
▁Қазір	-5526
▁қалың	-5527
дерінің	-5528
ическом	-5529
ическую	-5530
мағында	-5531
нодорож	-5532
ропалық	-5533
іңіздің	-5534
▁Amazon	-5535
▁Series	-5536
▁Америк	-5537
▁Доктор	-5538
▁вместе	-5539
▁высоко	-5540
▁данные	-5541
▁желісі	-5542
▁жіберу	-5543
▁жүктеу	-5544
▁мужчин	-5545
▁одного	-5546
▁открыт	-5547
▁персон	-5548
▁саяхат	-5549
▁сектор	-5550
▁страны	-5551
▁табиғи	-5552
▁тиісті	-5553
▁хотите	-5554
▁января	-5555
▁өткізу	-5556
.07.2018	-5557
теллекту	-5558
циясының	-5559
▁LifeIns	-5560
▁Psiphon	-5561
▁Америка	-5562
▁Жеткізу	-5563
▁Использ	-5564
▁Калифор	-5565
▁Негізгі	-5566
▁августа	-5567
▁бастады	-5568
▁желілер	-5569
▁изготов	-5570
▁каталог	-5571
▁объедин	-5572
▁осындай	-5573
▁отрасли	-5574
▁отырғыз	-5575
▁принцип	-5576
▁семинар	-5577
▁тасымал	-5578
▁трейдер	-5579
▁чемпион	-5580
▁шамамен	-5581
▁қалпына	-5582
▁қамтиды	-5583
▁қауымда	-5584
мақтастық	-5585
стаФорекс	-5586
▁Коммуник	-5587
▁Сертифик	-5588
▁действия	-5589
▁мамандан	-5590
▁обучение	-5591
▁работать	-5592
▁развитие	-5593
▁фотограф	-5594
▁істейтін	-5595
▁ұсынамыз	-5596
▁өнімдері	-5597
▁Швейцария	-5598
▁автокөлік	-5599
▁құралдары	-5600
▁Великобрит	-5601
▁Техникалық	-5602
▁информацию	-5603
▁менеджмент	-5604
▁мәселелері	-5605
▁разработан	-5606
▁реализации	-5607
▁қажеттілік	-5608
▁қызметінің	-5609
▁возможность	-5610
▁пайдаланушы	-5611
▁страхования	-5612
▁Железнодорож	-5613
▁Ультразвуков	-5614
▁конфигурация	-5615
▁LifeInsurance	-5616
▁использования	-5617
▁технологиялық	-5618
".	-5619
%.	-5620
,4	-5621
-3	-5622
-4	-5623
-7	-5624
.5	-5625
14	-5626
64	-5627
82	-5628
9:	-5629
AY	-5630
CH	-5631
EG	-5632
FE	-5633
OC	-5634
OP	-5635
OR	-5636
Ph	-5637
Sh	-5638
TD	-5639
US	-5640
cl	-5641
ew	-5642
gy	-5643
ІК	-5644
ВА	-5645
ЕК	-5646
ИЦ	-5647
ТЫ	-5648
УМ	-5649
ве	-5650
рю	-5651
іш	-5652
өр	-5653
00.	-5654
ame	-5655
amp	-5656
ank	-5657
ets	-5658
mag	-5659
ric	-5660
ual	-5661
ult	-5662
ype	-5663
»),	-5664
аки	-5665
амы	-5666
ақп	-5667
ван	-5668
ват	-5669
дый	-5670
ига	-5671
иду	-5672
леч	-5673
лиг	-5674
меш	-5675
нек	-5676
пан	-5677
пет	-5678
пий	-5679
пин	-5680
раг	-5681
рап	-5682
рим	-5683
сай	-5684
уре	-5685
цел	-5686
юйм	-5687
ято	-5688
ғат	-5689
▁.;	-5690
▁3)	-5691
▁De	-5692
▁PM	-5693
▁PP	-5694
▁We	-5695
▁Аб	-5696
▁Ли	-5697
▁Лу	-5698
▁Лю	-5699
▁ММ	-5700
▁ОБ	-5701
▁Шт	-5702
▁аб	-5703
▁пе	-5704
▁ті	-5705
▁Өт	-5706
form	-5707
ives	-5708
ooth	-5709
ower	-5710
алам	-5711
алом	-5712
арус	-5713
ауға	-5714
ахаб	-5715
демі	-5716
емых	-5717
ерлі	-5718
изне	-5719
иной	-5720
итал	-5721
лері	-5722
ляющ	-5723
меть	-5724
овал	-5725
одеж	-5726
ории	-5727
раль	-5728
рмау	-5729
руге	-5730
такт	-5731
уден	-5732
удің	-5733
уман	-5734
ушки	-5735
шрут	-5736
щики	-5737
ъект	-5738
ісін	-5739
ұрыс	-5740
өлем	-5741
▁12,	-5742
▁400	-5743
▁Sun	-5744
▁Sur	-5745
▁Бей	-5746
▁Вол	-5747
▁Год	-5748
▁ЖШС	-5749
▁Жоқ	-5750
▁Иде	-5751
▁КОЛ	-5752
▁Ман	-5753
▁Ник	-5754
▁Пор	-5755
▁Суд	-5756
▁Тек	-5757
▁Том	-5758
▁Топ	-5759
▁Түр	-5760
▁Шан	-5761
▁алм	-5762
▁бед	-5763
▁жин	-5764
▁зат	-5765
▁зуб	-5766
▁лау	-5767
▁пас	-5768
▁пис	-5769
▁пят	-5770
▁пән	-5771
▁суд	-5772
▁сөй	-5773
▁сөм	-5774
▁фев	-5775
▁хоч	-5776
▁шля	-5777
▁шот	-5778
▁эту	-5779
▁қыл	-5780
▁ұқс	-5781
▁әск	-5782
/2019	-5783
ystem	-5784
алдар	-5785
артыл	-5786
ающих	-5787
гейін	-5788
енген	-5789
енное	-5790
естік	-5791
иктор	-5792
кость	-5793
лений	-5794
ником	-5795
овано	-5796
осред	-5797
печат	-5798
рақұр	-5799
саңыз	-5800
створ	-5801
уется	-5802
ующих	-5803
шықты	-5804
ындық	-5805
імпаз	-5806
▁1998	-5807
▁2002	-5808
▁Park	-5809
▁Блог	-5810
▁День	-5811
▁Енді	-5812
▁Крас	-5813
▁Эксп	-5814
▁айыр	-5815
▁бері	-5816
▁бюро	-5817
▁бірл	-5818
▁внес	-5819
▁выда	-5820
▁годы	-5821
▁двер	-5822
▁двух	-5823
▁длин	-5824
▁мире	-5825
▁мына	-5826
▁оказ	-5827
▁пенс	-5828
▁плюс	-5829
▁свои	-5830
▁себе	-5831
▁ссыл	-5832
▁стал	-5833
▁стен	-5834
▁счет	-5835
▁сәул	-5836
▁таба	-5837
▁таст	-5838
▁тыся	-5839
▁увер	-5840
▁хост	-5841
▁цикл	-5842
▁Әйел	-5843
Алматы	-5844
Астана	-5845
далған	-5846
ижения	-5847
ийский	-5848
ратить	-5849
старды	-5850
старын	-5851
щество	-5852
ындығы	-5853
эконом	-5854
▁Class	-5855
▁Found	-5856
▁Solar	-5857
▁Автор	-5858
▁Алекс	-5859
▁Казах	-5860
▁Офици	-5861
▁Поезд	-5862
▁Спорт	-5863
▁Сізге	-5864
▁Шығыс	-5865
▁Ыстық	-5866
▁админ	-5867
▁атмос	-5868
▁аэроп	-5869
▁выход	-5870
▁граду	-5871
▁дорог	-5872
▁жасай	-5873
▁жизнь	-5874
▁залог	-5875
▁заман	-5876
▁иметь	-5877
▁какие	-5878
▁көшір	-5879
▁легко	-5880
▁масло	-5881
▁мерек	-5882
▁миним	-5883
▁миров	-5884
▁мұнай	-5885
▁наруш	-5886
▁обращ	-5887
▁одним	-5888
▁относ	-5889
▁отнош	-5890
▁отчет	-5891
▁пункт	-5892
▁сайын	-5893
▁смарт	-5894
▁состо	-5895
▁сфере	-5896
▁сұрай	-5897
▁таких	-5898
▁турни	-5899
▁успеш	-5900
▁шаңды	-5901
▁Ғылым	-5902
▁қабат	-5903
▁қараж	-5904
▁үйрен	-5905
▁өтеді	-5906
ируется	-5907
ическое	-5908
иясының	-5909
магазин	-5910
машылық	-5911
імділік	-5912
қатынас	-5913
▁Mobile	-5914
▁Бізбен	-5915
▁Гонкон	-5916
▁России	-5917
▁Темпер	-5918
▁Тіркел	-5919
▁анализ	-5920
▁апреля	-5921
▁бөлігі	-5922
▁вечера	-5923
▁воздух	-5924
▁делать	-5925
▁дистри	-5926
▁должен	-5927
▁жиынты	-5928
▁жобасы	-5929
▁зейнет	-5930
▁кездес	-5931
▁многих	-5932
▁музыка	-5933
▁ноября	-5934
▁потому	-5935
▁провин	-5936
▁работу	-5937
▁сертиф	-5938
▁сказал	-5939
▁субсид	-5940
▁хорошо	-5941
▁шляпка	-5942
▁қаласы	-5943
▁Үкімет	-5944
▁әуежай	-5945
▁өзінің	-5946
истрация	-5947
лагодаря	-5948
раструкт	-5949
формация	-5950
▁Univers	-5951
▁Комитет	-5952
▁Скачать	-5953
▁Чемпион	-5954
▁актілер	-5955
▁вопросы	-5956
▁граждан	-5957
▁есептеу	-5958
▁жобалау	-5959
▁жүргізу	-5960
▁квадрат	-5961
▁келтіру	-5962
▁команды	-5963
▁область	-5964
▁поэтому	-5965
▁сериясы	-5966
▁техника	-5967
▁техники	-5968
▁төменде	-5969
▁цилиндр	-5970
ительного	-5971
рақұрылым	-5972
▁берілген	-5973
▁деңгейін	-5974
▁мерзімді	-5975
▁механизм	-5976
▁проблемы	-5977
▁проектов	-5978
▁располож	-5979
▁слоттары	-5980
▁средства	-5981
▁тәуелсіз	-5982
▁характер	-5983
▁қабілеті	-5984
▁құқықтық	-5985
▁Толығырақ	-5986
▁енгізілді	-5987
▁маркетинг	-5988
▁находится	-5989
▁некоторые	-5990
▁пайдаланы	-5991
▁позволяет	-5992
▁поставщик	-5993
▁путешеств	-5994
▁рекоменда	-5995
ологических	-5996
▁Foundation	-5997
▁Психиатрия	-5998
▁бағдарлама	-5999
▁внутренних	-6000
▁мәліметтер	-6001
▁предлагает	-6002
▁приложение	-6003
▁психиатрия	-6004
▁өзгерістер	-6005
▁Температура	-6006
▁гидравличес	-6007
▁көрсетілген	-6008
▁обеспечения	-6009
▁жеткізушілер	-6010
▁использовать	-6011
▁исследований	-6012
▁коммерциялық	-6013
▁обслуживания	-6014
▁бағдарламалық	-6015
▁международного	-6016
▁ультрадыбыстық	-6017
▁государственной	-6018
▁университетінің	-6019
%-	-6020
.»	-6021
04	-6022
53	-6023
8"	-6024
93	-6025
AM	-6026
HS	-6027
OO	-6028
St	-6029
bi	-6030
we	-6031
АБ	-6032
АҢ	-6033
ОГ	-6034
ОК	-6035
СС	-6036
УР	-6037
жа	-6038
кг	-6039
ох	-6040
яс	-6041
-1.	-6042
.),	-6043
.09	-6044
.15	-6045
101	-6046
27)	-6047
5">	-6048
8">	-6049
="4	-6050
AST	-6051
SKU	-6052
ana	-6053
aps	-6054
iet	-6055
ink	-6056
mat	-6057
ner	-6058
net	-6059
oom	-6060
oud	-6061
out	-6062
ЛАР	-6063
Мен	-6064
аси	-6065
аяу	-6066
гар	-6067
гип	-6068
год	-6069
дут	-6070
жет	-6071
зян	-6072
ией	-6073
ини	-6074
ину	-6075
кар	-6076
лот	-6077
наб	-6078
наз	-6079
оже	-6080
олы	-6081
под	-6082
рач	-6083
рел	-6084
руб	-6085
сад	-6086
тей	-6087
топ	-6088
тых	-6089
фин	-6090
хай	-6091
цет	-6092
чат	-6093
шие	-6094
ымы	-6095
юза	-6096
ғыр	-6097
қол	-6098
қор	-6099
қыл	-6100
өңг	-6101
▁06	-6102
▁4)	-6103
▁7:	-6104
▁95	-6105
▁AL	-6106
▁AS	-6107
▁Ap	-6108
▁BL	-6109
▁FM	-6110
▁JD	-6111
▁KZ	-6112
▁NC	-6113
▁de	-6114
▁on	-6115
▁Да	-6116
▁Ел	-6117
▁Зд	-6118
▁СК	-6119
▁Си	-6120
▁Сы	-6121
▁Шы	-6122
▁гг	-6123
▁қа	-6124
▁қи	-6125
____	-6126
atch	-6127
dust	-6128
hang	-6129
iang	-6130
reed	-6131
ress	-6132
ster	-6133
акал	-6134
алыс	-6135
анию	-6136
арки	-6137
аушы	-6138
аций	-6139
ағат	-6140
бран	-6141
вращ	-6142
делі	-6143
екар	-6144
елос	-6145
есіп	-6146
зинь	-6147
ибол	-6148
имет	-6149
ирур	-6150
клад	-6151
ктің	-6152
ович	-6153
овую	-6154
онах	-6155
онов	-6156
оном	-6157
ория	-6158
орус	-6159
отек	-6160
рама	-6161
сымш	-6162
тігі	-6163
форт	-6164
чика	-6165
шний	-6166
ымыз	-6167
ьера	-6168
ющие	-6169
яжел	-6170
ілеу	-6171
ірек	-6172
әнек	-6173
▁0,5	-6174
▁10%	-6175
▁10-	-6176
▁30%	-6177
▁Aut	-6178
▁Dig	-6179
▁GTS	-6180
▁Rol	-6181
▁Spy	-6182
▁Tag	-6183
▁for	-6184
▁Афр	-6185
▁БОЛ	-6186
▁Вак	-6187
▁Дек	-6188
▁ЕАЭ	-6189
▁Жан	-6190
▁Кез	-6191
▁Лаз	-6192
▁МЕН	-6193
▁Мор	-6194
▁Нор	-6195
▁Пет	-6196
▁Рас	-6197
▁Сто	-6198
▁асс	-6199
▁бло	-6200
▁бог	-6201
▁бор	-6202
▁вещ	-6203
▁жиі	-6204
▁зем	-6205
▁имя	-6206
▁кни	-6207
▁көб	-6208
▁леч	-6209
▁мем	-6210
▁меш	-6211
▁окс	-6212
▁опл	-6213
▁ран	-6214
▁сат	-6215
▁сир	-6216
▁сәт	-6217
▁чет	-6218
▁экс	-6219
▁Қан	-6220
▁Қат	-6221
▁қағ	-6222
▁қоң	-6223
.2012	-6224
7172)	-6225
атора	-6226
атырм	-6227
бірек	-6228
гінде	-6229
еңгер	-6230
игран	-6231
илась	-6232
истер	-6233
лігін	-6234
нения	-6235
овали	-6236
овлет	-6237
пания	-6238
страх	-6239
сымен	-6240
талды	-6241
тауға	-6242
таңыз	-6243
тырау	-6244
чиков	-6245
ымдар	-6246
іктір	-6247
құжат	-6248
▁14.9	-6249
▁Coch	-6250
▁Comm	-6251
▁Free	-6252
▁Азам	-6253
▁Азии	-6254
▁Брит	-6255
▁Зоди	-6256
▁Моск	-6257
▁Наша	-6258
▁Олег	-6259
▁ақша	-6260
▁база	-6261
▁бары	-6262
▁векс	-6263
▁верх	-6264
▁есік	-6265
▁жағы	-6266
▁жетк	-6267
▁кері	-6268
▁кофе	-6269
▁навы	-6270
▁обыч	-6271
▁одна	-6272
▁одно	-6273
▁озық	-6274
▁опис	-6275
▁оқып	-6276
▁пози	-6277
▁прек	-6278
▁приз	-6279
▁прик	-6280
▁пунк	-6281
▁пыли	-6282
▁реги	-6283
▁свою	-6284
▁сель	-6285
▁сенс	-6286
▁смер	-6287
▁смож	-6288
▁став	-6289
▁схем	-6290
▁табу	-6291
▁тока	-6292
▁толщ	-6293
▁фонд	-6294
▁экск	-6295
▁Қара	-6296
▁қоса	-6297
акалав	-6298
берите	-6299
дается	-6300
дицион	-6301
елосип	-6302
иболее	-6303
ителем	-6304
лардың	-6305
параты	-6306
ружающ	-6307
эффици	-6308
▁(727)	-6309
▁25-33	-6310
▁Apple	-6311
▁Gener	-6312
▁Level	-6313
▁Super	-6314
▁Видео	-6315
▁Назар	-6316
▁Обрат	-6317
▁Также	-6318
▁Энерг	-6319
▁бұран	-6320
▁бөлме	-6321
▁волос	-6322
▁выдел	-6323
▁готов	-6324
▁грант	-6325
▁дұрыс	-6326
▁емдеу	-6327
▁емтих	-6328
▁жоғал	-6329
▁заңды	-6330
▁камер	-6331
▁көмір	-6332
▁микро	-6333
▁музык	-6334
▁накоп	-6335
▁налог	-6336
▁народ	-6337
▁насел	-6338
▁объем	-6339
▁очист	-6340
▁побед	-6341
▁салық	-6342
▁своим	-6343
▁сезім	-6344
▁слова	-6345
▁сорғы	-6346
▁сплав	-6347
▁шаршы	-6348
▁шығын	-6349
ication	-6350
егистри	-6351
едующий	-6352
каватор	-6353
ландыру	-6354
рование	-6355
стардың	-6356
ушылары	-6357
ционные	-6358
▁Indust	-6359
▁Европы	-6360
▁Проект	-6361
▁алатын	-6362
▁бөлімі	-6363
▁дальше	-6364
▁диапаз	-6365
▁енгізу	-6366
▁жылжым	-6367
▁записи	-6368
▁исполн	-6369
▁мастер	-6370
▁миссия	-6371
▁начина	-6372
▁отправ	-6373
▁подпис	-6374
▁предус	-6375
▁преиму	-6376
▁ресурс	-6377
▁станов	-6378
▁таблет	-6379
▁товара	-6380
▁указан	-6381
▁уровне	-6382
▁уровня	-6383
▁физика	-6384
▁эффект	-6385
▁үшінші	-6386
Министрі	-6387
дірілген	-6388
елерінің	-6389
ительная	-6390
казатель	-6391
овлетвор	-6392
хождения	-6393
▁Digital	-6394
▁Автомат	-6395
▁Бесплат	-6396
▁аясында	-6397
▁веществ	-6398
▁дегенде	-6399
▁дисплей	-6400
▁журналы	-6401
▁кейінгі	-6402
▁коммент	-6403
▁которое	-6404
▁мөлшері	-6405
▁настрой	-6406
▁продажи	-6407
▁существ	-6408
▁тазалау	-6409
▁функции	-6410
▁эксперт	-6411
▁экспорт	-6412
▁Қосымша	-6413
▁қабылда	-6414
▁қанағат	-6415
▁қараңыз	-6416
▁қосыңыз	-6417
▁құрылғы	-6418
Казахстан	-6419
▁Cochlear	-6420
▁Алюминий	-6421
▁Конферен	-6422
▁беріледі	-6423
▁деректер	-6424
▁ешқандай	-6425
▁келдіңіз	-6426
▁означает	-6427
▁растений	-6428
▁рецептор	-6429
▁салыстыр	-6430
▁қарқынды	-6431
▁өкілдері	-6432
▁өнеркәсі	-6433
▁болдырмау	-6434
▁білдіреді	-6435
▁бөлшектер	-6436
▁категории	-6437
▁көрсеткіш	-6438
▁повышения	-6439
▁температу	-6440
▁хозяйства	-6441
▁экономики	-6442
▁қалыңдығы	-6443
▁Еуразиялық	-6444
▁Количество	-6445
▁Парламента	-6446
▁автомобиля	-6447
▁аксессуары	-6448
▁жергілікті	-6449
▁интеллекту	-6450
▁используют	-6451
▁статистика	-6452
▁удовлетвор	-6453
▁установлен	-6454
▁Официальный	-6455
▁көмектеседі	-6456
▁менеджмента	-6457
▁организаций	-6458
▁пластикалық	-6459
▁предприятия	-6460
▁республикан	-6461
▁эксперимент	-6462
▁қатысушылар	-6463
▁Министерство	-6464
▁жарықтандыру	-6465
▁компоненттер	-6466
▁образователь	-6467
▁фотосуреттер	-6468
▁ынтымақтастық	-6469
▁пайдаланушылар	-6470
▁экономического	-6471
1)	-6472
18	-6473
54	-6474
7)	-6475
8,	-6476
AZ	-6477
BD	-6478
ML	-6479
NS	-6480
SP	-6481
af	-6482
au	-6483
kg	-6484
me	-6485
ue	-6486
АУ	-6487
ИЧ	-6488
НЕ	-6489
ОБ	-6490
ОМ	-6491
ПО	-6492
ХД	-6493
ЦИ	-6494
дв	-6495
еи	-6496
пе	-6497
тя	-6498
фф	-6499
шу	-6500
ье	-6501
яб	-6502
-00	-6503
-06	-6504
30.	-6505
ING	-6506
ans	-6507
ary	-6508
ase	-6509
bet	-6510
erc	-6511
ika	-6512
ime	-6513
inf	-6514
olm	-6515
own	-6516
per	-6517
tik	-6518
und	-6519
vel	-6520
ІЗД	-6521
ВЕР	-6522
вая	-6523
гал	-6524
гро	-6525
жар	-6526
зан	-6527
зіл	-6528
ико	-6529
кан	-6530
леж	-6531
лли	-6532
нде	-6533
нут	-6534
ньц	-6535
оно	-6536
офе	-6537
рик	-6538
сил	-6539
сте	-6540
тес	-6541
тіп	-6542
шей	-6543
шет	-6544
ылу	-6545
ыта	-6546
ьше	-6547
қой	-6548
ұқс	-6549
▁75	-6550
▁88	-6551
▁AP	-6552
▁CH	-6553
▁ER	-6554
▁El	-6555
▁IP	-6556
▁IT	-6557
▁PR	-6558
▁TO	-6559
▁ad	-6560
▁th	-6561
▁Ам	-6562
▁КӨ	-6563
▁НА	-6564
▁ПК	-6565
▁Уч	-6566
▁бе	-6567
▁еж	-6568
▁еу	-6569
▁жа	-6570
▁ме	-6571
▁ож	-6572
▁ұл	-6573
▁ән	-6574
have	-6575
heet	-6576
ille	-6577
irus	-6578
rack	-6579
rill	-6580
АЦИЯ	-6581
абан	-6582
айлы	-6583
амин	-6584
анов	-6585
аныш	-6586
ағды	-6587
гаем	-6588
евид	-6589
емся	-6590
есіз	-6591
изма	-6592
имый	-6593
кесі	-6594
кими	-6595
коль	-6596
лица	-6597
лоза	-6598
масы	-6599
ония	-6600
орон	-6601
отор	-6602
расл	-6603
рина	-6604
рлер	-6605
рует	-6606
слов	-6607
теді	-6608
фера	-6609
шает	-6610
шего	-6611
яньц	-6612
ятия	-6613
ілуі	-6614
імде	-6615
ұрыш	-6616
▁10)	-6617
▁19-	-6618
▁Acc	-6619
▁Car	-6620
▁Col	-6621
▁Des	-6622
▁LTD	-6623
▁Net	-6624
▁Off	-6625
▁Ray	-6626
▁USD	-6627
▁Аль	-6628
▁Анд	-6629
▁Без	-6630
▁Гиб	-6631
▁Дел	-6632
▁Дет	-6633
▁Зат	-6634
▁Каз	-6635
▁Кер	-6636
▁Коп	-6637
▁Көп	-6638
▁Мер	-6639
▁Окт	-6640
▁Пай	-6641
▁Поч	-6642
▁Сыр	-6643
▁Таб	-6644
▁Тай	-6645
▁Хол	-6646
▁Хор	-6647
▁Циф	-6648
▁ағы	-6649
▁вос	-6650
▁дәм	-6651
▁жап	-6652
▁жид	-6653
▁инт	-6654
▁инъ	-6655
▁коп	-6656
▁күр	-6657
▁көң	-6658
▁мей	-6659
▁мыс	-6660
▁мүд	-6661
▁нап	-6662
▁нев	-6663
▁рав	-6664
▁рел	-6665
▁рус	-6666
▁сок	-6667
▁тие	-6668
▁фил	-6669
▁циф	-6670
▁шай	-6671
▁шег	-6672
▁шик	-6673
▁Қыр	-6674
▁қон	-6675
▁қою	-6676
▁қыш	-6677
▁ұмт	-6678
▁әлі	-6679
▁өзі	-6680
▁өсі	-6681
.2014	-6682
ookie	-6683
актив	-6684
ардың	-6685
ающий	-6686
дайды	-6687
екции	-6688
ерлеу	-6689
ерный	-6690
женер	-6691
илакт	-6692
матри	-6693
нению	-6694
ойчив	-6695
остат	-6696
остью	-6697
охран	-6698
разия	-6699
ствие	-6700
стері	-6701
тация	-6702
түрлі	-6703
іресе	-6704
қайда	-6705
▁2006	-6706
▁3000	-6707
▁Hang	-6708
▁Hong	-6709
▁Imag	-6710
▁Serv	-6711
▁Test	-6712
▁Unif	-6713
▁Ішкі	-6714
▁Гран	-6715
▁Және	-6716
▁Фото	-6717
▁алты	-6718
▁ауыр	-6719
▁басқ	-6720
▁вари	-6721
▁вкус	-6722
▁выше	-6723
▁гост	-6724
▁даму	-6725
▁деді	-6726
▁есеб	-6727
▁зауы	-6728
▁июля	-6729
▁либо	-6730
▁могу	-6731
▁наши	-6732
▁непр	-6733
▁плен	-6734
▁посе	-6735
▁тері	-6736
▁торг	-6737
▁тұру	-6738
▁шест	-6739
▁экст	-6740
▁этаж	-6741
▁язык	-6742
▁қала	-6743
▁қаси	-6744
▁қақп	-6745
▁қуат	-6746
▁әлде	-6747
▁өнер	-6748
ection	-6749
enzhen	-6750
etooth	-6751
evelop	-6752
алатын	-6753
альном	-6754
герлер	-6755
герлік	-6756
едения	-6757
елерін	-6758
емелер	-6759
изатор	-6760
лықтар	-6761
люлоза	-6762
ляется	-6763
ованию	-6764
окапро	-6765
станав	-6766
теріне	-6767
іктігі	-6768
▁Elect	-6769
▁Power	-6770
▁Білім	-6771
▁Всего	-6772
▁Мұнда	-6773
▁Работ	-6774
▁Радио	-6775
▁Сипат	-6776
▁Соңғы	-6777
▁Специ	-6778
▁Стран	-6779
▁Сурет	-6780
▁автор	-6781
▁алған	-6782
▁аппет	-6783
▁баған	-6784
▁бөлін	-6785
▁ведом	-6786
▁ветер	-6787
▁волок	-6788
▁далее	-6789
▁дағды	-6790
▁домен	-6791
▁дүние	-6792
▁дәнек	-6793
▁еңбек	-6794
▁жедел	-6795
▁защищ	-6796
▁издел	-6797
▁источ	-6798
▁келді	-6799
▁кодек	-6800
▁короб	-6801
▁көлік	-6802
▁людей	-6803
▁марта	-6804
▁метод	-6805
▁набор	-6806
▁назар	-6807
▁намаз	-6808
▁начал	-6809
▁новые	-6810
▁облиг	-6811
▁освещ	-6812
▁пойыз	-6813
▁посад	-6814
▁почты	-6815
▁празд	-6816
▁рынке	-6817
▁самых	-6818
▁себеп	-6819
▁сезін	-6820
▁сенім	-6821
▁слоты	-6822
▁сұрақ	-6823
▁темір	-6824
▁тепла	-6825
▁терез	-6826
▁труда	-6827
▁түсті	-6828
▁тұжыр	-6829
▁төлеу	-6830
▁фильт	-6831
▁форми	-6832
▁халық	-6833
▁часть	-6834
▁шақыр	-6835
▁шешім	-6836
▁школа	-6837
▁шығыс	-6838
▁ыстық	-6839
▁ыңғай	-6840
▁Қаржы	-6841
▁қадам	-6842
▁қайда	-6843
▁құжат	-6844
▁ұқсас	-6845
артылай	-6846
ательно	-6847
ахаббат	-6848
енности	-6849
ператор	-6850
рирован	-6851
терінде	-6852
ғымдағы	-6853
▁Casino	-6854
▁Energy	-6855
▁Закона	-6856
▁Машина	-6857
▁Мұндай	-6858
▁айында	-6859
▁берген	-6860
▁бірдей	-6861
▁бірлік	-6862
▁выпуск	-6863
▁ерекше	-6864
▁жалғыз	-6865
▁жатқан	-6866
▁жұмысы	-6867
▁именно	-6868
▁импуль	-6869
▁корпус	-6870
▁купить	-6871
▁кіреді	-6872
▁магнит	-6873
▁мерзім	-6874
▁намаза	-6875
▁начать	-6876
▁обязан	-6877
▁отбасы	-6878
▁отдель	-6879
▁оценки	-6880
▁первый	-6881
▁работа	-6882
▁размещ	-6883
▁резерв	-6884
▁реттеу	-6885
▁салқын	-6886
▁сандық	-6887
▁свобод	-6888
▁своего	-6889
▁себебі	-6890
▁сейчас	-6891
▁секунд	-6892
▁станок	-6893
▁фитинг	-6894
▁қорытп	-6895
атистика	-6896
елосипед	-6897
ительной	-6898
ключение	-6899
яньцзинь	-6900
▁Machine	-6901
▁Ескерту	-6902
▁Колледж	-6903
▁Пневмат	-6904
▁Програм	-6905
▁Салмағы	-6906
▁Француз	-6907
▁айналыс	-6908
▁алдыңғы	-6909
▁дистриб	-6910
▁европей	-6911
▁ешқашан	-6912
▁женщины	-6913
▁күнінен	-6914
▁мультим	-6915
▁октября	-6916
▁педагог	-6917
▁потенци	-6918
▁процесі	-6919
▁систему	-6920
▁студент	-6921
▁субъект	-6922
▁участия	-6923
▁функций	-6924
▁Құрылғы	-6925
▁қабырға	-6926
▁өндіріс	-6927
атуировки	-6928
ированные	-6929
▁Департам	-6930
▁Описание	-6931
▁Сингапур	-6932
▁бірыңғай	-6933
▁жетістік	-6934
▁жеңімпаз	-6935
▁индивиду	-6936
▁качество	-6937
▁кепілдік	-6938
▁командир	-6939
▁контроля	-6940
▁көрінеді	-6941
▁лазерлік	-6942
▁наиболее	-6943
▁общества	-6944
▁получает	-6945
▁приготов	-6946
▁проблема	-6947
▁сценарий	-6948
▁телефоны	-6949
▁температ	-6950
▁условиях	-6951
▁шектеулі	-6952
▁шешімдер	-6953
▁қабылдан	-6954
▁құрылған	-6955
техникалық	-6956
▁Bluetooth	-6957
▁Фармацевт	-6958
▁алюминиев	-6959
▁ақпаратты	-6960
▁бульдозер	-6961
▁денсаулық	-6962
▁жүйесінің	-6963
▁полностью	-6964
▁следующие	-6965
▁татуировк	-6966
▁утвержден	-6967
▁қарағанда	-6968
▁Ассоциация	-6969
▁Ақпараттық	-6970
▁ақпараттық	-6971
▁достаточно	-6972
▁инновацион	-6973
▁мақсатында	-6974
▁происходит	-6975
▁работников	-6976
▁элементтер	-6977
▁ИнстаФорекс	-6978
▁Медициналық	-6979
▁Электрондық	-6980
▁зависимости	-6981
▁инфраструкт	-6982
▁организация	-6983
▁серіктестік	-6984
▁департаменті	-6985
▁инфрақұрылым	-6986
▁квалификации	-6987
▁пользователя	-6988
▁предусмотрен	-6989
▁Правительства	-6990
▁Президентінің	-6991
▁международных	-6992
▁Железнодорожная	-6993
!»	-6994
4"	-6995
AF	-6996
CM	-6997
Cl	-6998
DF	-6999
HD	-7000
IC	-7001
IL	-7002
MW	-7003
PG	-7004
SC	-7005
SX	-7006
TR	-7007
ah	-7008
bl	-7009
by	-7010
iy	-7011
lt	-7012
mg	-7013
oy	-7014
pm	-7015
ql	-7016
АЯ	-7017
Ар	-7018
ЗУ	-7019
ОТ	-7020
ЫЗ	-7021
ЫН	-7022
аю	-7023
во	-7024
лу	-7025
ха	-7026
эк	-7027
▁e	-7028
▁r	-7029
!!!	-7030
-13	-7031
-19	-7032
.02	-7033
20)	-7034
21.	-7035
6">	-7036
700	-7037
="2	-7038
ads	-7039
akh	-7040
ane	-7041
aus	-7042
edu	-7043
ica	-7044
ier	-7045
iot	-7046
ody	-7047
ЕНТ	-7048
ЛЕД	-7049
ОРЫ	-7050
адц	-7051
акт	-7052
аяр	-7053
быс	-7054
вен	-7055
вой	-7056
гол	-7057
ейм	-7058
жде	-7059
ибо	-7060
ику	-7061
иса	-7062
иум	-7063
нгі	-7064
ниц	-7065
нич	-7066
нож	-7067
оба	-7068
орг	-7069
оть	-7070
пал	-7071
рии	-7072
рий	-7073
рын	-7074
сол	-7075
сто	-7076
сып	-7077
тый	-7078
тыс	-7079
цин	-7080
шау	-7081
шақ	-7082
шек	-7083
ший	-7084
ыбы	-7085
юта	-7086
ғни	-7087
ұлу	-7088
ӘНЕ	-7089
▁02	-7090
▁08	-7091
▁8:	-7092
▁DC	-7093
▁II	-7094
▁IM	-7095
▁NY	-7096
▁TR	-7097
▁Up	-7098
▁АР	-7099
▁Бу	-7100
▁Бұ	-7101
▁Дә	-7102
▁ИН	-7103
▁КС	-7104
▁ОТ	-7105
▁Пу	-7106
▁ТР	-7107
▁ид	-7108
▁уб	-7109
▁ын	-7110
▁Өл	-7111
-800	-7112
.12.	-7113
2000	-7114
34">	-7115
="11	-7116
="23	-7117
="33	-7118
PCBA	-7119
apro	-7120
berg	-7121
cont	-7122
erry	-7123
iram	-7124
item	-7125
izon	-7126
ness	-7127
rend	-7128
vest	-7129
zhou	-7130
Фран	-7131
абол	-7132
алов	-7133
апат	-7134
ауыр	-7135
гіру	-7136
дает	-7137
драв	-7138
ерея	-7139
ерин	-7140
есов	-7141
етен	-7142
ибли	-7143
идан	-7144
икул	-7145
илен	-7146
илет	-7147
илиз	-7148
импи	-7149
исты	-7150
итар	-7151
каза	-7152
ктем	-7153
лған	-7154
мотр	-7155
нако	-7156
нами	-7157
овым	-7158
перь	-7159
раты	-7160
скеу	-7161
тест	-7162
улов	-7163
улік	-7164
уына	-7165
фейс	-7166
филь	-7167
ходы	-7168
чных	-7169
ющим	-7170
ұлды	-7171
▁(10	-7172
▁(18	-7173
▁0.0	-7174
▁10,	-7175
▁19,	-7176
▁220	-7177
▁700	-7178
▁Ass	-7179
▁EEC	-7180
▁Hor	-7181
▁Hot	-7182
▁Min	-7183
▁Out	-7184
▁com	-7185
▁mob	-7186
▁sql	-7187
▁you	-7188
▁Акт	-7189
▁Бра	-7190
▁Вам	-7191
▁Вас	-7192
▁Гру	-7193
▁Дер	-7194
▁Его	-7195
▁Жақ	-7196
▁Жен	-7197
▁Жол	-7198
▁Защ	-7199
▁Кей	-7200
▁Люб	-7201
▁Меш	-7202
▁ПХД	-7203
▁Пож	-7204
▁Рек	-7205
▁Ром	-7206
▁Соз	-7207
▁ЧТО	-7208
▁вин	-7209
▁вок	-7210
▁гип	-7211
▁доз	-7212
▁зад	-7213
▁кок	-7214
▁кро	-7215
▁кіл	-7216
▁лед	-7217
▁лог	-7218
▁мак	-7219
▁неф	-7220
▁пап	-7221
▁пес	-7222
▁сух	-7223
▁уро	-7224
▁фаз	-7225
▁фон	-7226
▁шаг	-7227
▁ҚАЛ	-7228
▁қаш	-7229
.2013	-7230
01.01	-7231
board	-7232
ement	-7233
irect	-7234
ition	-7235
асибо	-7236
беков	-7237
болев	-7238
вание	-7239
далан	-7240
деуге	-7241
дилер	-7242
енеді	-7243
етика	-7244
знать	-7245
калар	-7246
кемді	-7247
ларда	-7248
матов	-7249
маған	-7250
носка	-7251
ображ	-7252
осход	-7253
сенбі	-7254
ствол	-7255
сынан	-7256
тарда	-7257
терге	-7258
тылық	-7259
ынтық	-7260
ытқыш	-7261
ғылау	-7262
ңызды	-7263
ұқсат	-7264
▁1200	-7265
▁1997	-7266
▁2001	-7267
▁2003	-7268
▁4200	-7269
▁4250	-7270
▁4300	-7271
▁5000	-7272
▁Biot	-7273
▁Cent	-7274
▁Inst	-7275
▁Prof	-7276
▁Stud	-7277
▁Tool	-7278
▁have	-7279
▁Груп	-7280
▁Есть	-7281
▁ЖӘНЕ	-7282
▁Ошиб	-7283
▁Поль	-7284
▁Свет	-7285
▁Сред	-7286
▁Стар	-7287
▁Тест	-7288
▁ампл	-7289
▁анну	-7290
▁арен	-7291
▁базе	-7292
▁бирж	-7293
▁болу	-7294
▁восп	-7295
▁глаз	-7296
▁дана	-7297
▁дать	-7298
▁даяр	-7299
▁диск	-7300
▁древ	-7301
▁инсп	-7302
▁келе	-7303
▁лить	-7304
▁меди	-7305
▁мені	-7306
▁мину	-7307
▁ниже	-7308
▁ойна	-7309
▁очер	-7310
▁приш	-7311
▁пуст	-7312
▁свар	-7313
▁соны	-7314
▁стаб	-7315
▁стак	-7316
▁таза	-7317
▁тағы	-7318
▁тепл	-7319
▁трек	-7320
▁труд	-7321
▁түсі	-7322
▁увид	-7323
▁шығу	-7324
▁қайт	-7325
▁қана	-7326
▁қате	-7327
▁өзен	-7328
▁өлім	-7329
imited	-7330
басары	-7331
брокер	-7332
дардан	-7333
дармен	-7334
дердің	-7335
дырады	-7336
ейтинг	-7337
идания	-7338
икатор	-7339
инации	-7340
кажите	-7341
овании	-7342
очного	-7343
формат	-7344
чества	-7345
шылығы	-7346
ұлулық	-7347
▁Lives	-7348
▁Stand	-7349
▁Басқа	-7350
▁Горяч	-7351
▁Класс	-7352
▁Новый	-7353
▁Обзор	-7354
▁Обнов	-7355
▁Орнал	-7356
▁Перев	-7357
▁Слоты	-7358
▁Тариф	-7359
▁Толық	-7360
▁Управ	-7361
▁автоб	-7362
▁аудит	-7363
▁бақыл	-7364
▁болаш	-7365
▁будущ	-7366
▁біреу	-7367
▁бөлік	-7368
▁горяч	-7369
▁девуш	-7370
▁дилер	-7371
▁доход	-7372
▁дүкен	-7373
▁жарық	-7374
▁жасыл	-7375
▁жатты	-7376
▁казах	-7377
▁кедер	-7378
▁корот	-7379
▁курсы	-7380
▁мұнда	-7381
▁паром	-7382
▁подел	-7383
▁посещ	-7384
▁терең	-7385
▁тысяч	-7386
▁түзет	-7387
▁тұтын	-7388
▁файлы	-7389
▁форму	-7390
▁форум	-7391
▁химия	-7392
▁холод	-7393
▁целью	-7394
▁шағым	-7395
▁істер	-7396
▁Қазан	-7397
▁қатты	-7398
▁қағид	-7399
▁үйлес	-7400
▁әдемі	-7401
▁өтіні	-7402
content	-7403
ействие	-7404
иректор	-7405
ложение	-7406
оректор	-7407
работка	-7408
спектив	-7409
электро	-7410
▁(7172)	-7411
▁System	-7412
▁cookie	-7413
▁Амстер	-7414
▁Бағасы	-7415
▁Лондон	-7416
▁Лучшие	-7417
▁Металл	-7418
▁Сноска	-7419
▁август	-7420
▁аламын	-7421
▁алыңыз	-7422
▁апрель	-7423
▁аудару	-7424
▁будете	-7425
▁вероят	-7426
▁дополн	-7427
▁доцент	-7428
▁жылдар	-7429
▁жылдық	-7430
▁загруз	-7431
▁камера	-7432
▁карточ	-7433
▁кескіш	-7434
▁кеңейт	-7435
▁критер	-7436
▁меншік	-7437
▁молоды	-7438
▁момент	-7439
▁назнач	-7440
▁настро	-7441
▁нашего	-7442
▁ноябрь	-7443
▁нәтиже	-7444
▁облада	-7445
▁органы	-7446
▁появля	-7447
▁прибыл	-7448
▁пример	-7449
▁процед	-7450
▁пункта	-7451
▁расшир	-7452
▁рецепт	-7453
▁сапасы	-7454
▁создан	-7455
▁тарихы	-7456
▁теперь	-7457
▁тіркеу	-7458
▁түрлен	-7459
▁чувств	-7460
▁Қолдан	-7461
▁қатына	-7462
▁қорған	-7463
▁қосылы	-7464
▁қосымш	-7465
▁құрмет	-7466
▁өзінде	-7467
аларының	-7468
альность	-7469
ительные	-7470
рованный	-7471
▁14.9-24	-7472
▁Horizon	-7473
▁Америки	-7474
▁Балалар	-7475
▁Беларус	-7476
▁Гонконг	-7477
▁Принтер	-7478
▁Сегодня	-7479
▁Факульт	-7480
▁алғашқы	-7481
▁анықтау	-7482
▁большин	-7483
▁бірегей	-7484
▁дизайны	-7485
▁жиынтық	-7486
▁заболев	-7487
▁ингреди	-7488
▁которой	-7489
▁көбірек	-7490
▁мерзімі	-7491
▁металла	-7492
▁небольш	-7493
▁никогда	-7494
▁орталық	-7495
▁порошок	-7496
▁порядке	-7497
▁привлек	-7498
▁продукт	-7499
▁решения	-7500
▁рулетка	-7501
▁салмағы	-7502
▁степени	-7503
▁странах	-7504
▁тұратын	-7505
▁фильтра	-7506
▁қақпағы	-7507
▁әртүрлі	-7508
▁әрқашан	-7509
ительство	-7510
▁Unifiram	-7511
▁Александ	-7512
▁Павлодар	-7513
▁Представ	-7514
▁Стандарт	-7515
▁алюминия	-7516
▁аннуитет	-7517
▁біріктір	-7518
▁введения	-7519
▁вопросам	-7520
▁высокого	-7521
▁диаметрі	-7522
▁доступны	-7523
▁дәрежесі	-7524
▁жиынтығы	-7525
▁интерьер	-7526
▁кандидат	-7527
▁комиссии	-7528
▁коммуник	-7529
▁компаний	-7530
▁которого	-7531
▁мобильді	-7532
▁объектов	-7533
▁окружающ	-7534
▁основном	-7535
▁отырғызу	-7536
▁позволит	-7537
▁поставки	-7538
▁развитию	-7539
▁редактор	-7540
▁сайтында	-7541
▁студенты	-7542
▁торговли	-7543
▁удаления	-7544
▁человека	-7545
▁қызметін	-7546
астырылған	-7547
▁Интернете	-7548
▁Компьютер	-7549
▁Свяжитесь	-7550
▁Солтүстік	-7551
▁Тяньцзинь	-7552
▁арқасында	-7553
▁бағыттары	-7554
▁благодаря	-7555
▁двигателя	-7556
▁документа	-7557
▁еуропалық	-7558
▁зейнетақы	-7559
▁имущества	-7560
▁казахстан	-7561
▁независим	-7562
▁обработки	-7563
▁отношения	-7564
▁получения	-7565
▁саласында	-7566
▁следующих	-7567
▁транспорт	-7568
▁әлдеқайда	-7569
▁University	-7570
▁Казахстане	-7571
▁Предыдущая	-7572
▁Республика	-7573
▁бекітілген	-7574
▁жеткілікті	-7575
▁количество	-7576
▁компоненты	-7577
▁математика	-7578
▁материалов	-7579
▁орынбасары	-7580
▁пожалуйста	-7581
▁соединения	-7582
▁территории	-7583
▁экскаватор	-7584
▁электронды	-7585
▁қызметтері	-7586
▁ұйымдастыр	-7587
▁Жаңартылған	-7588
▁Регистрация	-7589
▁иностранных	-7590
▁мониторинга	-7591
▁предприятий	-7592
▁сегодняшний	-7593
▁сипаттамасы	-7594
▁талаптарына	-7595
▁компаниялары	-7596
▁представляет	-7597
▁производство	-7598
▁компаниясының	-7599
▁соответствующ	-7600
▁эффективность	-7601
▁Ультразвуковая	-7602
▁производителем	-7603
▁сотрудничества	-7604
▁Государственный	-7605
▁предприниматель	-7606
((	-7607
,2	-7608
,8	-7609
--	-7610
-6	-7611
52	-7612
86	-7613
91	-7614
92	-7615
AK	-7616
AL	-7617
DS	-7618
EK	-7619
GY	-7620
OL	-7621
TT	-7622
WS	-7623
ny	-7624
sm	-7625
to	-7626
АД	-7627
АК	-7628
ГУ	-7629
ИС	-7630
РУ	-7631
бя	-7632
зм	-7633
оқ	-7634
пт	-7635
тд	-7636
ху	-7637
чь	-7638
юр	-7639
ён	-7640
ёр	-7641
▁j	-7642
-15	-7643
.).	-7644
010	-7645
999	-7646
ENT	-7647
ein	-7648
eth	-7649
imp	-7650
ord	-7651
ose	-7652
ote	-7653
ove	-7654
pot	-7655
rip	-7656
rum	-7657
uct	-7658
une	-7659
ush	-7660
АЛЬ	-7661
АТТ	-7662
АТЬ	-7663
Бар	-7664
ЕКТ	-7665
Ком	-7666
НЫҢ	-7667
аби	-7668
амб	-7669
ате	-7670
ауы	-7671
бақ	-7672
бод	-7673
виз	-7674
вок	-7675
дім	-7676
ева	-7677
ево	-7678
еса	-7679
жел	-7680
жыл	-7681
жүз	-7682
зак	-7683
иан	-7684
йық	-7685
каф	-7686
кей	-7687
ког	-7688
кта	-7689
куб	-7690
кци	-7691
лиж	-7692
лым	-7693
мид	-7694
мол	-7695
міс	-7696
неу	-7697
низ	-7698
нор	-7699
оот	-7700
оса	-7701
пия	-7702
пущ	-7703
сем	-7704
сор	-7705
сқа	-7706
тез	-7707
уан	-7708
чка	-7709
чки	-7710
щик	-7711
ыли	-7712
қаб	-7713
▁$1	-7714
▁54	-7715
▁AM	-7716
▁BT	-7717
▁By	-7718
▁CO	-7719
▁DR	-7720
▁DV	-7721
▁Fl	-7722
▁HP	-7723
▁Hp	-7724
▁Ir	-7725
▁PL	-7726
▁PT	-7727
▁Qu	-7728
▁we	-7729
▁Ат	-7730
▁Ем	-7731
▁Ес	-7732
▁Ис	-7733
▁Ла	-7734
▁Ле	-7735
▁СО	-7736
▁Ту	-7737
▁Тә	-7738
▁Ув	-7739
▁Уз	-7740
▁Ян	-7741
▁др	-7742
▁жж	-7743
▁жу	-7744
▁нм	-7745
▁ри	-7746
▁уә	-7747
▁шо	-7748
▁ыл	-7749
Flow	-7750
acle	-7751
adio	-7752
ange	-7753
iate	-7754
mati	-7755
obal	-7756
otor	-7757
port	-7758
АЛЫҚ	-7759
ЕНИЕ	-7760
азмұ	-7761
алқы	-7762
асөз	-7763
банк	-7764
верт	-7765
евой	-7766
едей	-7767
епер	-7768
ерыв	-7769
естр	-7770
еңке	-7771
ижен	-7772
илья	-7773
имен	-7774
иран	-7775
иста	-7776
итом	-7777
иций	-7778
йтын	-7779
керш	-7780
лицы	-7781
нему	-7782
непр	-7783
овка	-7784
омер	-7785
оним	-7786
ософ	-7787
осто	-7788
очек	-7789
плот	-7790
ранс	-7791
роль	-7792
убеж	-7793
убер	-7794
уляр	-7795
хбат	-7796
хода	-7797
цесс	-7798
шарт	-7799
щина	-7800
ынып	-7801
ырақ	-7802
ющая	-7803
ющий	-7804
ғады	-7805
қыны	-7806
ңгім	-7807
ңқыр	-7808
үкен	-7809
әсіх	-7810
әтер	-7811
▁101	-7812
▁130	-7813
▁16,	-7814
▁160	-7815
▁197	-7816
▁	-7817
а	-7818
е	-7819
н	-7820
о	-7821
т	-7822
р	-7823
и	-7824
с	-7825
л	-7826
ы	-7827
д	-7828
к	-7829
м	-7830
і	-7831
в	-7832
у	-7833
п	-7834
б	-7835
з	-7836
.	-7837
й	-7838
,	-7839
г	-7840
қ	-7841
я	-7842
ж	-7843
0	-7844
ш	-7845
ь	-7846
1	-7847
2	-7848
-	-7849
e	-7850
ғ	-7851
ч	-7852
ң	-7853
х	-7854
a	-7855
o	-7856
i	-7857
t	-7858
ц	-7859
r	-7860
n	-7861
ә	-7862
ү	-7863
s	-7864
ф	-7865
ө	-7866
С	-7867
5	-7868
3	-7869
ұ	-7870
ю	-7871
А	-7872
К	-7873
:	-7874
l	-7875
4	-7876
)	-7877
П	-7878
О	-7879
9	-7880
(	-7881
7	-7882
u	-7883
8	-7884
М	-7885
Б	-7886
c	-7887
6	-7888
d	-7889
Т	-7890
S	-7891
C	-7892
Р	-7893
"	-7894
э	-7895
m	-7896
щ	-7897
В	-7898
Н	-7899
h	-7900
Д	-7901
/	-7902
И	-7903
A	-7904
p	-7905
Е	-7906
Қ	-7907
g	-7908
P	-7909
»	-7910
«	-7911
T	-7912
y	-7913
M	-7914
D	-7915
k	-7916
Ж	-7917
N	-7918
I	-7919
>	-7920
Л	-7921
E	-7922
Г	-7923
B	-7924
L	-7925
R	-7926
F	-7927
;	-7928
b	-7929
У	-7930
H	-7931
w	-7932
O	-7933
З	-7934
=	-7935
–	-7936
v	-7937
Ш	-7938
G	-7939
f	-7940
Ф	-7941
_	-7942
!	-7943
Э	-7944
?	-7945
W	-7946
V	-7947
%	-7948
K	-7949
Х	-7950
U	-7951
x	-7952
Ы	-7953
z	-7954
І	-7955
Ч	-7956
<	-7957
Ц	-7958
X	-7959
Ө	-7960
*	-7961
Я	-7962
Y	-7963
J	-7964
+	-7965
—	-7966
•	-7967
ъ	-7968
Ұ	-7969
&	-7970
Ә	-7971
Z	-7972
Ү	-7973
­	-7974
$	-7975
j	-7976
#	-7977
Й	-7978
°	-7979
Q	-7980
\	-7981
q	-7982
Ь	-7983
[	-7984
]	-7985
Ю	-7986
ё	-7987
Ң	-7988
@	-7989
£	-7990
Ғ	-7991
“	-7992
”	-7993
€	-7994
'	-7995
~	-7996
